1C
00
00
00
54
46
4C
33
14
00
20
00
1C
00
18
00
14
00
10
00
0C
00
00
00
08
00
04
00
14
00
00
00
1C
00
00
00
88
00
00
00
E0
00
00
00
88
2E
08
00
98
2E
08
00
A8
45
08
00
03
00
00
00
01
00
00
00
04
00
00
00
82
D0
F7
FF
0C
00
00
00
1C
00
00
00
3C
00
00
00
0F
00
00
00
73
65
72
76
69
6E
67
5F
64
65
66
61
75
6C
74
00
01
00
00
00
04
00
00
00
94
FF
FF
FF
16
00
00
00
04
00
00
00
08
00
00
00
6F
75
74
70
75
74
5F
30
00
00
00
00
01
00
00
00
04
00
00
00
8A
D0
F7
FF
04
00
00
00
0B
00
00
00
69
6E
70
75
74
5F
6C
61
79
65
72
00
02
00
00
00
34
00
00
00
04
00
00
00
DC
FF
FF
FF
19
00
00
00
04
00
00
00
13
00
00
00
43
4F
4E
56
45
52
53
49
4F
4E
5F
4D
45
54
41
44
41
54
41
00
08
00
0C
00
08
00
04
00
08
00
00
00
18
00
00
00
04
00
00
00
13
00
00
00
6D
69
6E
5F
72
75
6E
74
69
6D
65
5F
76
65
72
73
69
6F
6E
00
1A
00
00
00
A4
2D
08
00
9C
2D
08
00
88
2D
08
00
74
2D
08
00
60
2D
08
00
4C
2D
08
00
1C
2D
08
00
8C
2C
08
00
7C
14
00
00
EC
13
00
00
DC
01
00
00
8C
01
00
00
EC
00
00
00
E4
00
00
00
DC
00
00
00
D4
00
00
00
CC
00
00
00
C4
00
00
00
BC
00
00
00
B4
00
00
00
AC
00
00
00
A4
00
00
00
9C
00
00
00
94
00
00
00
74
00
00
00
04
00
00
00
6A
D1
F7
FF
04
00
00
00
60
00
00
00
0C
00
00
00
08
00
0E
00
08
00
04
00
08
00
00
00
10
00
00
00
28
00
00
00
00
00
06
00
08
00
04
00
06
00
00
00
04
00
00
00
01
00
00
00
EB
03
00
00
0C
00
18
00
14
00
10
00
0C
00
04
00
0C
00
00
00
7F
B4
ED
42
F3
A2
83
B3
02
00
00
00
02
00
00
00
04
00
00
00
06
00
00
00
32
2E
32
31
2E
30
00
00
D6
D1
F7
FF
04
00
00
00
10
00
00
00
31
2E
31
34
2E
30
00
00
00
00
00
00
00
00
00
00
14
BD
F7
FF
18
BD
F7
FF
1C
BD
F7
FF
20
BD
F7
FF
24
BD
F7
FF
28
BD
F7
FF
2C
BD
F7
FF
30
BD
F7
FF
34
BD
F7
FF
38
BD
F7
FF
3C
BD
F7
FF
1E
D2
F7
FF
04
00
00
00
90
00
00
00
23
34
86
9B
F3
40
EC
77
81
69
02
40
8A
E8
67
05
81
40
15
10
7E
81
CB
D9
60
1B
02
49
D8
08
9C
B0
A3
7F
15
C2
67
FA
4D
81
04
30
E0
58
81
31
15
00
7F
1B
0F
D1
B7
A5
62
68
81
2E
C6
29
96
D1
40
5C
8C
A4
73
06
7F
92
B1
BA
81
F7
B0
D2
3E
3C
5D
4A
E4
85
2A
81
AD
FC
87
29
78
09
5B
22
13
55
FF
5A
81
CB
CA
D4
7F
F5
06
88
0B
1F
A8
2A
A8
C9
8F
0A
E2
E8
81
47
4A
81
5C
33
54
47
31
0D
BD
C7
B5
81
2A
77
F4
C2
0C
B9
28
81
60
2D
A8
2C
04
14
64
A1
BA
D2
F7
FF
04
00
00
00
40
00
00
00
14
00
00
00
D8
FF
FF
FF
40
00
00
00
DF
FF
FF
FF
FF
FF
FF
FF
F3
FF
FF
FF
8A
00
00
00
02
00
00
00
D0
FF
FF
FF
F4
FF
FF
FF
26
00
00
00
EE
FF
FF
FF
E7
FF
FF
FF
0D
00
00
00
06
00
00
00
E7
FF
FF
FF
06
D3
F7
FF
04
00
00
00
00
12
00
00
A2
E4
F8
86
A8
3E
2F
D1
22
83
41
F8
AD
9F
1A
A4
A8
45
F5
65
A3
87
16
E6
E0
84
F3
90
22
A5
98
FA
BB
1F
A5
60
17
57
16
4E
F0
84
F9
5F
E2
AD
4E
97
52
3E
A4
4F
31
B4
59
4E
E9
23
1A
B2
AD
1D
F9
32
D5
D2
AD
3F
BE
C2
BD
DE
0F
3A
A1
8C
65
CE
A6
2F
C9
9A
B7
EA
2D
82
15
A8
65
00
93
43
41
D7
C2
33
21
21
50
F4
C7
91
56
C0
58
66
23
63
AC
05
F5
51
B9
92
94
D2
4F
31
19
16
29
5E
62
FC
E8
45
E6
24
13
C6
10
CF
E8
8E
93
AB
B8
C2
A9
B5
61
0B
81
14
44
66
F9
9D
A9
AE
B5
91
85
12
CE
14
F6
6F
AC
64
D3
AB
DE
92
99
05
47
39
2E
72
B0
C9
88
F7
4E
9A
A2
F5
86
36
85
5F
21
84
C2
FE
19
1F
93
49
86
CE
9C
08
92
CA
F3
22
9D
AD
81
00
9C
FF
CC
38
3B
38
34
DD
19
58
14
E9
EC
BE
73
CE
15
76
15
93
7B
12
A8
88
95
23
99
C3
F5
84
87
47
FA
7A
E1
55
D3
18
DB
F3
89
95
D1
68
79
3F
E4
8D
FB
30
EB
72
5F
A1
E6
C8
35
7C
9A
C7
89
22
BF
D6
04
E2
67
B6
F8
62
C6
13
FF
AD
13
AB
C6
4B
F8
DE
89
23
F4
25
A3
79
E7
6D
55
E8
DB
35
E8
07
C7
18
0D
48
55
3E
C3
1B
E5
55
AD
0D
37
2F
F6
47
0E
14
1F
19
CA
01
15
14
D5
2B
F5
35
F3
B9
7F
BF
F3
C0
0D
DA
F0
27
E9
16
CA
31
3C
25
14
23
03
1D
14
F8
F9
51
D3
FE
F9
2F
2C
DE
C5
E2
D0
E7
4E
2F
01
F9
CA
B0
B4
25
15
E4
3A
F5
AA
C2
D8
D6
1D
F2
01
C0
C8
F7
3D
1B
13
14
02
5C
51
D2
19
C2
29
59
AA
E9
05
3B
1F
CC
2C
3F
37
41
18
E5
3E
64
3F
07
ED
28
2B
F5
05
18
4C
3E
E1
1B
E7
16
6C
66
24
C5
FB
54
3D
5A
EA
FC
B0
BB
8C
43
CF
ED
0B
84
BD
EA
5E
A6
11
54
0D
C9
FA
A4
8C
D4
51
F5
C0
38
67
E9
50
D5
8A
83
06
FD
54
D3
F8
B3
D9
0A
19
A4
02
90
38
DB
58
14
56
FF
F8
62
8D
4B
EF
3F
61
07
54
8C
E2
DF
F8
B0
09
19
4C
94
30
21
B7
1A
44
87
B0
50
C8
C0
B5
33
FF
04
B6
23
BE
58
2B
18
5C
C4
54
DE
45
52
85
A2
A3
CD
55
5D
82
E0
F8
D3
D0
38
E9
84
33
A6
BF
31
81
CD
20
BF
4D
CD
94
15
08
37
87
E9
05
31
10
3D
BB
51
1C
92
39
21
D7
58
05
B8
3C
F9
13
60
23
24
FB
4C
DC
22
86
FD
E7
46
57
CC
B3
8D
AA
61
E1
A9
DE
E6
64
05
37
03
9C
B2
62
61
B9
F8
67
66
A3
59
A6
4E
21
60
48
BA
A7
BE
A3
C4
07
8C
89
8E
0F
98
B0
E4
47
3B
9A
B6
2D
2A
82
AE
A6
C4
0C
1C
81
8C
E8
67
D0
31
5D
52
58
46
D9
04
AA
B4
1E
3C
84
1E
8A
95
05
02
56
24
17
EE
8E
1F
8C
FD
CA
83
C5
13
D6
E5
F5
3E
3C
39
29
CE
63
B2
76
A9
E0
DD
02
33
34
0B
67
66
87
B8
4E
66
54
AA
58
C0
9D
FA
B3
ED
1B
A1
86
32
9C
5C
E1
5F
8B
3C
E7
EA
69
1C
2D
14
24
CE
0A
09
43
E7
EA
D9
EF
ED
4A
6D
0A
41
97
87
85
B6
64
E4
45
B0
70
2E
33
18
E6
3B
A1
1C
35
58
C4
52
AE
B7
B2
12
59
55
8E
B9
73
D5
23
0A
42
FC
58
2C
CD
B8
E3
31
37
38
A2
1A
65
60
8C
5D
88
F7
9E
49
42
A4
ED
A2
24
1F
83
E5
D0
D5
6F
EE
CD
81
F0
25
E7
BF
CC
05
E2
1B
51
35
0A
DA
83
92
EA
08
46
58
FC
32
D1
CB
67
22
13
93
67
EA
0D
44
D3
28
CD
A6
F3
5E
30
4C
97
B6
34
C4
F2
FA
BB
E7
1C
2E
F2
AE
0B
29
54
32
32
B7
CE
AC
C6
98
FE
9E
04
08
8D
47
88
E7
B3
02
0E
A8
C8
18
D3
71
F9
FC
9B
04
0A
5E
C6
26
D8
81
2C
0F
95
FC
0E
8E
AF
EC
56
AB
0C
03
B9
FF
9E
3E
09
90
C1
1A
86
8C
C8
A7
86
3B
00
5B
10
21
52
B9
00
38
E2
B8
60
1F
39
93
CC
0C
33
5C
6A
C1
19
5F
2B
F9
8D
E3
94
D5
3F
B3
AA
32
B9
13
D9
93
39
90
57
18
D8
73
6E
BF
FD
4C
65
C2
3A
CC
D7
B5
67
DA
BE
DC
FB
1B
7A
A3
F3
A2
4B
66
31
32
BC
DA
4E
5F
C0
47
86
B5
31
C4
72
EF
87
84
1E
05
29
A2
9A
01
19
FB
73
65
B9
27
1E
A6
BB
50
A4
DB
6A
E1
2B
D2
30
CE
C8
F9
D2
11
20
31
A9
C5
B8
06
3E
15
34
C2
30
3B
0D
41
4A
31
F8
3C
1A
D9
EA
C8
CA
EE
1B
E0
BA
33
3B
3C
A5
AB
22
D1
BA
E0
2D
3C
C2
29
AF
09
AB
38
F0
FB
DF
D5
0C
F3
13
1E
E5
00
29
B2
B2
FB
C0
FB
17
B7
7F
04
DF
36
C3
FD
3E
15
F2
C7
12
02
46
C0
B6
EC
71
AE
AA
4E
14
08
9F
31
41
AC
C8
F2
02
19
E7
FD
16
F7
A1
FC
D2
2F
30
3A
CE
FE
A5
0A
E5
1E
A7
C2
15
31
26
A7
33
AF
48
07
C7
E9
F3
AE
35
24
DE
46
42
44
BA
44
EE
2D
15
CC
D3
23
65
E9
F5
AA
A9
6D
C0
B8
0E
F9
F8
B3
21
DC
EB
04
62
2D
11
FF
6A
63
DC
42
6E
CB
BE
9C
BB
F4
0B
A6
BE
2E
93
DD
4B
E8
BA
4B
DD
A2
C2
3B
0F
AE
C0
3C
0F
23
F2
A5
B1
18
B5
DC
12
36
7B
D4
0B
79
9B
3C
39
F6
F7
53
1A
AD
92
E6
3D
AF
FA
D6
D1
BE
F1
ED
E2
B1
5C
0D
1D
16
FE
D5
4F
4C
FF
0B
37
30
4E
44
FA
43
E6
F6
D5
46
86
FB
7A
60
FB
D3
19
7F
F3
E1
27
FF
42
44
6B
4B
C6
2C
62
E0
07
E4
CE
42
10
1E
45
35
DC
FE
17
30
3C
B3
55
26
CF
32
1D
60
0E
11
E9
27
D1
17
F3
B9
C7
1B
C3
F2
BA
D9
E6
0F
D9
55
F5
0D
5C
C3
2B
2C
0A
0C
FE
1F
1F
52
EB
CC
03
4D
2C
39
39
C3
3D
F8
BC
10
3D
DD
F2
CB
FD
6F
ED
33
03
D4
3D
E1
3C
65
6E
4D
3D
E6
7F
AA
0C
18
4C
B4
54
59
2E
08
50
62
26
13
23
E0
53
54
FC
37
CB
2C
E0
57
75
57
F1
CD
0E
26
16
C0
37
E8
E5
CD
F6
C2
C3
6A
D0
CC
DC
F1
48
0D
BA
E0
FB
24
0F
0F
F9
51
CD
21
51
E1
EF
0D
59
42
22
49
30
AE
00
DD
41
AD
29
07
00
22
0D
A9
62
E1
5A
F7
E0
E6
A6
32
C5
03
C9
37
2B
B7
CF
4C
93
D2
55
A9
5D
61
23
12
B5
C1
E7
96
4D
24
2E
2F
DA
F0
C6
67
FF
2E
08
F3
4A
45
B8
8A
83
56
36
B2
A0
81
56
66
57
D9
50
6B
C5
2B
C6
5C
5E
54
23
52
F5
22
88
F0
96
E4
25
6F
1A
64
EC
C3
13
52
A4
BC
56
FC
F5
D5
CC
EA
8D
18
DD
12
4F
01
21
FE
D2
64
97
0E
FB
9A
FE
AB
00
A9
0E
E3
1C
F1
79
15
3F
21
1C
68
D1
C2
EE
E9
98
59
FD
5F
DD
07
2A
9E
26
B3
FA
57
EB
52
8B
41
5E
C0
D9
97
CA
05
64
99
8C
EC
F1
5B
8E
D2
A7
4E
90
93
B2
4A
AE
3F
CA
8A
33
AD
8F
A6
85
77
C4
D0
18
0F
89
8E
B8
60
29
FF
1C
4E
20
D6
A0
CB
F9
6F
43
70
00
E8
67
10
6B
0B
82
A4
8E
E0
29
78
E3
58
02
94
12
21
BC
EE
83
2A
33
0E
A8
B4
3B
05
0C
B3
22
3F
63
AE
BC
93
4F
23
98
1C
DD
A0
E3
33
2D
D1
C1
63
D1
0E
F0
40
AE
0E
94
28
58
9D
87
A8
36
6F
EB
08
9D
3C
47
9D
29
A2
83
A2
C0
45
78
01
97
37
D8
E7
D0
8E
CD
96
FF
4A
74
0F
A7
81
0F
8E
0D
92
C1
5A
87
53
5F
28
D7
98
30
DE
23
28
3E
B0
5F
6C
99
86
A7
9C
D2
D8
6F
C0
4E
13
D8
B3
16
BE
03
1C
FD
4A
F5
BD
E8
15
F3
26
CA
DD
ED
A3
D0
EA
D3
BA
E6
03
FF
46
23
04
71
05
A1
BA
05
24
6A
24
EE
F1
59
58
F7
50
21
D9
19
3E
46
49
2E
35
25
C6
4D
B0
D0
F9
E2
D3
2E
D7
F7
2A
28
28
31
4E
02
26
0B
0C
FE
4A
AA
F7
AE
55
21
1A
E9
35
2D
46
38
F5
7F
22
C9
E5
D6
A6
34
5D
E4
15
4D
64
10
35
78
03
D9
E4
33
FE
2D
34
3C
00
51
C3
FC
3C
BA
DA
38
EB
5D
D7
B7
73
14
09
AA
E5
03
A4
5A
6A
BE
FE
DB
42
3B
1A
04
CD
4A
1A
2A
B0
4E
10
23
39
C5
C2
31
05
29
D0
0E
4F
49
B9
FC
5D
37
B0
30
AD
27
D9
1E
F5
2E
32
52
0C
FA
6E
D1
F6
43
BE
EA
49
CB
D7
2D
AD
7A
08
14
6C
AC
56
AE
04
1D
A7
40
63
6E
59
60
FB
6C
C6
0A
09
1A
03
30
48
08
C1
2E
27
5D
2F
D3
28
E0
0C
EA
29
FE
F3
B0
C9
F3
0D
1E
EA
28
11
14
C1
40
2E
0D
43
40
51
D1
64
67
13
D8
4F
2C
16
6E
2F
E3
F6
19
BD
5A
EB
52
EF
34
DA
1C
DF
57
D3
5A
ED
79
C8
F2
A3
46
0F
F1
1E
FB
5A
61
38
69
FB
D2
2D
7F
5C
D4
DF
E4
F3
27
A5
5F
DA
97
49
5D
A1
23
25
C9
4B
2D
AE
2E
01
5D
92
D0
3A
5D
BB
E1
56
58
F7
A7
38
AE
B2
87
6A
E1
5B
4D
1A
BF
47
B9
C0
5B
96
57
AD
36
D3
ED
37
68
14
4D
32
1B
6A
28
B2
94
26
B0
37
0F
B2
2C
0D
98
35
98
E4
36
A0
08
AD
F1
F3
8E
39
4B
6B
EA
EF
EB
CF
46
4F
A8
F7
2A
8B
9B
FF
19
33
4D
00
D2
DF
CE
F9
43
32
24
3C
4D
90
45
23
08
F9
92
BA
45
C3
81
16
DE
DD
13
BD
72
36
B3
C2
27
AD
D0
FA
FD
8E
E9
64
99
20
C0
93
41
1B
E7
C1
AF
87
AD
C5
A0
5A
D7
0C
B6
6C
D5
F6
36
55
AC
AD
1D
52
4D
C4
69
35
C8
BE
CE
57
F5
71
08
FC
50
E5
7E
AA
C1
07
AD
1A
06
E7
1F
09
BF
C5
C5
4E
02
E6
0A
C3
A8
74
0A
5E
BA
AE
B8
00
09
D0
73
4B
02
D5
5D
B6
0E
D9
B9
47
33
0E
54
CF
C2
28
4D
69
F9
F0
EF
5D
E8
3A
BF
DE
D3
C8
FE
93
64
C1
F9
66
75
B7
AE
D9
57
4D
24
DB
06
1E
D8
4D
B9
32
CE
22
7B
BA
4F
DB
62
D2
C3
AC
D6
C1
1C
30
B5
6E
79
96
72
BE
7F
39
A8
60
33
BF
F6
D4
25
EE
4F
34
C9
46
1E
F9
39
D3
F5
2A
55
BB
5D
28
00
A3
20
67
C3
28
AA
4E
70
81
0E
AA
F4
D0
A8
78
7C
11
07
FD
CF
4E
B5
AC
3E
64
BF
48
4D
61
A6
FC
9C
D2
EE
C8
0B
75
1D
CA
FD
A6
A5
B9
A3
31
B4
66
C5
58
CC
B9
2F
18
66
A1
3F
03
17
58
C3
33
BA
6D
ED
5D
40
A1
53
0B
FA
56
A0
65
3A
61
F9
AE
AC
60
CD
EA
DB
90
A5
4B
27
64
F1
DA
D0
E3
34
48
D0
49
C2
26
52
6A
22
00
18
FA
C8
F3
75
95
6D
94
E3
17
AF
C3
01
0B
6C
92
F7
D4
AC
12
E7
AE
88
CA
C0
97
CC
5F
90
41
46
55
03
90
B3
CA
B1
EA
1C
37
4C
FA
3E
B6
85
1A
23
15
C5
9B
D4
67
2F
26
3D
10
AB
39
0E
27
BD
D1
DC
24
D1
E8
51
85
81
8F
ED
28
E9
55
4E
CC
E1
E5
C4
E0
B2
51
E4
31
41
42
9F
8C
14
5A
0F
02
12
04
F9
30
4D
0F
CC
43
AA
3C
04
81
F9
43
21
F3
27
3B
BA
1F
99
FA
B6
00
5C
2C
BE
1C
30
9C
15
43
23
D2
C3
23
2F
59
D4
BD
03
E0
F4
24
95
B7
BF
14
35
EA
4E
D0
53
CB
15
44
28
C3
8C
25
B6
AF
D4
BA
20
E1
60
A8
88
F3
D1
5D
21
A5
A7
9D
1C
ED
5B
97
A4
A4
EE
AF
41
03
96
9E
F9
F2
25
E4
E3
F3
E5
92
68
DF
63
DE
0C
83
6E
53
E4
D3
85
AF
03
6E
98
CC
5B
F9
F4
1D
65
58
AE
D3
CE
A7
04
6B
C8
8E
D6
A3
90
43
F9
B8
3B
F0
C5
2C
B3
6E
4A
C1
85
23
5B
9F
C5
4B
29
5C
55
0B
17
9C
85
06
B5
27
E6
9C
9F
8E
A4
FE
E7
62
A3
17
CD
08
E4
95
F5
29
81
37
4D
68
89
C8
B1
3F
E3
D3
BF
62
69
33
0F
3C
53
58
EB
A8
58
24
01
BB
69
6B
C5
F8
5E
89
6C
8B
B2
04
F5
E7
0B
4A
68
C7
FB
3B
F1
BB
C9
C6
FC
99
E8
1A
35
40
9B
67
16
37
EA
36
BA
4F
5A
4D
18
FF
D5
0B
2C
12
16
BC
2E
FF
DD
D7
32
0D
BE
D2
F8
D3
B6
09
26
4F
3E
1B
66
DC
E5
34
F8
D9
0D
12
CB
06
41
57
73
52
61
D5
17
30
05
CF
71
AE
26
75
E5
50
5B
44
90
0B
C6
06
E9
AD
12
CB
05
2E
EB
B2
F4
15
46
07
88
CC
38
E9
40
BD
4F
1A
31
0C
D4
65
DE
F9
F0
4D
E8
D4
4F
21
3E
C1
CA
2C
7F
2C
FE
27
DD
66
2A
19
32
46
F3
20
E1
2E
DC
BF
A9
FA
4C
DE
3A
0C
02
EA
4E
F5
4F
0E
5E
D4
28
1C
A1
60
50
BE
FC
B5
DC
78
E7
E6
D7
0B
4D
E4
B1
19
4E
CA
BC
01
4A
E4
D2
D0
ED
88
1D
52
B9
4B
21
26
0C
41
29
3F
10
07
F8
88
52
41
AF
C2
CA
D9
C4
A9
10
5A
59
C1
1E
C0
0F
0B
86
E4
11
ED
7F
A8
C6
CB
5C
CF
15
26
1B
AA
19
ED
96
4F
EC
8D
C4
0E
53
62
39
04
B7
42
D1
93
0F
D8
5A
EC
AC
4B
69
C7
A7
F3
92
1C
64
83
F3
99
3A
8D
B5
FE
BE
D8
16
2E
A9
85
CB
B7
AC
10
FB
2F
24
CA
EA
22
F8
36
B6
E9
E4
DD
3D
83
DC
5C
5D
0E
85
90
8D
AD
F6
11
65
64
DA
11
37
48
25
C5
3F
D7
B3
55
90
35
E8
BD
A8
22
FB
0E
44
49
3F
58
9C
53
DE
61
20
EA
33
E8
C0
D4
02
9F
38
F7
68
14
AC
A4
84
18
2C
9B
AC
0E
DD
27
F2
D9
EA
40
37
B0
86
ED
49
39
7F
E6
09
66
65
64
E3
02
F9
27
EF
91
E1
53
11
41
E1
8F
44
28
93
F3
5F
D5
5F
65
A0
EC
8A
67
9D
AB
EC
9E
8F
0A
2F
6E
65
A6
A6
A5
2D
E3
F1
5B
08
49
F8
C4
27
96
D3
E2
30
8B
39
C5
10
C0
21
6F
5D
F7
D4
DC
A1
21
76
52
D6
C8
1C
3A
49
25
C3
8E
B2
44
92
05
8D
18
28
32
11
E0
1F
35
C4
45
AB
62
0B
5A
8B
E4
56
F5
4F
70
95
57
A3
33
37
F6
F4
85
5C
26
D7
E5
62
25
FC
86
27
3D
94
EF
36
9B
D9
E2
CD
BC
DB
8D
B5
94
5C
8C
C6
55
0E
D7
C3
AB
07
9E
35
F4
E6
4B
DB
58
AA
F7
B2
88
C2
91
DC
F1
11
E3
BD
C5
75
5C
E7
28
75
C4
B6
03
54
98
2F
E1
84
D6
C9
CC
FD
D4
A9
EF
6B
CE
9A
A4
C5
30
5F
2B
F2
58
0D
45
21
65
E1
EF
17
D2
0A
EC
3A
5D
D1
BB
EB
D4
28
69
27
5A
C8
13
3D
3A
36
C8
D7
99
37
B3
AD
3B
BD
B0
15
BD
8C
A8
CD
66
40
F6
CA
E2
1A
35
F6
3E
FB
6C
F8
CA
6F
2C
16
53
E0
B2
81
87
49
9E
AC
71
3E
3B
43
2C
0C
5F
39
EA
B2
C0
34
D9
11
BF
32
3A
58
4B
5E
B1
22
68
F8
C3
D7
C0
09
E1
C8
D4
55
A8
31
F0
53
D6
C0
F7
C8
CA
04
26
2C
4D
3B
E1
11
8E
1C
32
7F
F5
38
07
D0
C4
F0
D7
B7
0F
E0
A5
BC
3B
F1
D0
19
05
2B
3D
8D
C6
64
5C
6A
29
4F
06
FD
BD
B5
58
7E
54
0A
B5
E3
F9
E6
3C
67
2E
27
11
F4
B4
0C
42
40
A5
F1
0A
1A
50
2F
B8
C3
31
2D
44
0D
97
D1
31
FF
E8
BB
DC
18
B7
17
E8
C7
B5
D2
B9
A9
EB
35
CD
F9
53
DE
55
DE
BB
22
42
26
0E
4F
DF
13
F3
81
90
A7
FD
5C
B7
AF
54
9F
D2
AF
3B
C7
B9
FB
E5
E8
EA
5B
8D
BC
F9
2A
CB
09
87
B8
C6
C2
45
66
28
0C
D1
A4
A3
CC
77
20
70
DC
01
B6
3E
07
A6
44
2D
95
47
70
32
2A
29
E3
C6
C7
45
39
1D
65
0C
05
96
16
B4
CE
86
BB
34
9F
1C
E9
FC
3E
D3
AB
A9
6C
1E
FC
9A
89
6D
62
36
9F
97
BA
8A
2F
B7
62
10
53
A4
F3
95
BF
17
52
42
8C
F2
73
EB
92
9D
30
7E
ED
0A
45
96
C8
F9
A9
DB
7A
4B
85
1D
D3
8A
82
0E
ED
64
DA
53
74
B6
16
04
EA
90
CF
2D
AE
56
25
7B
E6
95
63
3E
B1
25
E2
15
A9
95
0D
1C
3B
4C
39
AA
93
31
BE
93
F1
43
26
11
0D
9B
62
36
30
20
44
55
08
49
3C
40
27
43
14
CF
86
FC
EC
2B
05
02
46
D6
DD
9C
18
FD
F0
C6
4C
14
4D
4C
DA
3E
D0
0E
B9
8E
A5
07
EB
C5
86
2F
0F
2A
16
4A
A2
AA
5E
1D
DE
B9
0F
53
AB
FB
A2
2A
A8
67
FD
86
D8
60
0A
09
A0
BA
C3
47
8B
C5
40
BF
C8
83
BA
A1
E0
56
36
D5
06
64
EF
08
97
21
CA
1E
35
CB
6D
8E
33
93
D7
C8
0A
68
89
96
BB
EA
8C
E3
C7
B5
21
36
A7
E7
D5
99
81
1D
F5
52
5D
DA
3F
E8
DC
E3
04
16
6E
F3
B9
8B
B6
A9
A4
91
66
49
17
9D
29
4D
69
08
22
6C
DE
8C
85
B2
2F
0B
0F
9D
59
A7
88
0B
CB
E7
ED
9E
BA
5F
B2
4B
CE
94
C1
0E
4A
A6
F3
EF
67
03
53
2A
DA
A0
21
DF
65
62
ED
5C
8E
AF
E9
CF
5D
A6
41
6F
4C
43
37
69
E4
F9
FD
21
EF
5C
F1
CD
1A
96
4B
9D
EF
65
3D
65
41
8F
0B
D6
CB
3B
B2
C4
D6
FE
C8
AD
C9
81
F0
AA
05
2D
D4
68
FE
93
1A
E7
93
97
0F
C1
CD
3B
1B
0F
2A
EA
72
4A
C8
8C
16
6A
C2
B4
67
1A
D2
56
43
AA
B9
DB
29
AC
A8
5A
ED
EC
A8
5E
07
1F
98
3B
A2
81
14
EC
39
D3
CD
E9
5F
40
C5
DF
F3
95
15
A0
DE
DE
45
1E
48
64
AE
5E
BD
A9
EE
08
A3
22
1E
05
56
3E
E8
50
4B
C1
BE
30
21
12
BF
BC
CF
63
1B
E3
91
D9
32
EF
CA
16
CA
BE
16
85
E5
C8
0E
4B
29
F7
ED
55
B7
0E
58
FF
16
30
C9
AA
1C
DE
93
D5
C7
A8
23
88
B2
63
37
35
37
C2
DB
DC
EB
4E
0D
5E
9C
11
FC
CC
AE
E2
CB
4A
53
8E
9E
A6
B4
53
31
EB
C3
F5
39
1F
EC
37
9D
A4
99
DD
AF
C7
73
4A
25
50
55
3C
4A
55
9B
EC
F6
99
DE
8B
0C
CC
95
FE
EA
58
91
F6
FF
B8
A5
B7
59
5C
7D
C5
8A
53
BF
10
28
9F
26
5E
18
3E
98
41
9D
09
E7
F9
8D
A0
A8
C5
67
26
0D
F9
40
A6
B2
DB
BE
E4
20
AA
B4
08
E3
8D
8C
CC
A4
06
09
09
39
A0
03
D1
01
81
C7
CE
2C
46
01
45
A8
D8
96
65
6A
5A
E5
17
A6
CD
90
1C
FE
D3
12
DE
26
14
D7
BF
3D
CC
F5
31
46
86
AF
41
30
30
C6
51
E8
AD
C1
EC
BE
1B
8C
23
31
D1
31
68
F3
64
5D
08
5C
B7
5B
09
3A
65
35
2A
B1
47
B8
31
B1
56
63
C4
1A
09
5D
AC
BA
8D
9A
5A
79
EC
E6
3A
63
9C
2E
C7
04
73
98
53
A2
8D
CE
1F
A6
22
40
25
34
BB
53
1B
89
95
2B
0E
04
AD
94
87
19
B7
AC
04
26
FF
8A
67
B3
20
A2
79
EF
70
2E
CC
B2
1B
68
DE
68
61
64
C3
F4
D3
A9
9E
4A
6E
71
39
55
CC
53
D2
B2
54
97
E0
18
D9
2D
5B
65
71
98
18
AD
DA
02
93
FB
95
D4
2E
87
81
8F
38
EA
E7
02
46
63
44
B7
E0
FC
40
F0
98
1D
4B
FE
D6
31
95
85
49
52
C5
D1
98
16
DD
02
45
42
14
C6
6C
2C
ED
23
C8
BD
99
64
D0
A9
E6
63
B4
EF
DD
E8
29
66
C1
1B
B9
FA
A6
A7
C8
6E
CA
D6
53
60
B1
32
C3
22
04
AA
52
32
EC
E7
63
7F
FA
2F
AB
75
0C
1F
6B
EA
AD
05
28
ED
54
3A
22
F6
40
F7
43
61
2A
12
39
A0
CB
11
32
46
30
33
DE
2A
50
BF
3D
CE
C7
EC
E8
B8
FF
0C
FA
CB
A0
54
4B
CF
ED
37
BA
13
01
CC
25
4B
B6
3E
05
E1
30
5A
67
D6
1B
F0
AB
19
37
BA
59
D8
42
3A
4E
51
DA
1B
C3
1C
D2
4F
0C
17
2C
C5
61
20
A2
D8
1B
C7
FD
F0
B8
C1
43
36
37
DB
C2
F7
D9
17
F7
B9
04
26
ED
4E
CA
B9
AA
35
9C
C0
2E
44
DE
4D
D6
A3
5C
F0
FF
2E
CA
87
C7
62
DF
BD
E5
B2
89
A7
30
05
0A
E4
72
09
F4
3E
57
25
F7
C9
11
0C
3A
B1
25
F7
A6
54
EC
61
BE
AA
1D
AD
21
4F
29
8A
87
EF
DA
A5
79
DC
84
9A
D2
E3
74
A8
1B
85
1F
C8
6B
27
3C
D2
A4
F4
B2
30
CF
85
B3
66
04
53
68
26
96
A9
A9
2D
2A
70
0B
BB
49
F4
8C
DD
BF
20
0F
84
42
95
B4
41
C7
DE
CF
DF
76
7F
04
F6
34
D6
6D
5C
CC
8B
8F
BC
8A
5A
66
05
EB
28
CA
AF
E6
9F
DA
E2
6F
C8
48
89
9B
45
AE
8C
94
5A
3F
32
08
A3
B3
EB
A0
33
FD
12
E5
F7
FF
04
00
00
00
80
00
00
00
9A
FF
FF
FF
00
00
00
00
65
00
00
00
88
FF
FF
FF
89
FF
FF
FF
A9
FF
FF
FF
C7
FF
FF
FF
E7
FF
FF
FF
BC
FF
FF
FF
DC
FF
FF
FF
9D
FF
FF
FF
F6
FF
FF
FF
9F
FF
FF
FF
8A
00
00
00
A4
FF
FF
FF
10
00
00
00
BE
FF
FF
FF
96
FF
FF
FF
B5
FF
FF
FF
4E
00
00
00
D6
FF
FF
FF
CD
FF
FF
FF
C7
FF
FF
FF
57
FF
FF
FF
00
00
00
00
8E
FF
FF
FF
D0
FF
FF
FF
FB
FF
FF
FF
AC
FF
FF
FF
D9
FF
FF
FF
DD
FF
FF
FF
00
00
00
00
9E
E5
F7
FF
04
00
00
00
00
18
08
00
01
1D
20
BD
0C
95
49
91
FC
04
31
49
FB
F5
A7
02
A2
E4
A3
E2
21
86
1B
90
4D
0A
1A
2F
D4
49
AA
35
E0
AE
A4
E3
F6
DA
AA
24
1A
BA
0A
EF
41
BA
00
3F
3A
FA
0B
1C
2B
DF
CA
13
29
07
DF
D6
27
04
8B
11
C1
3E
B8
AA
0D
E1
13
3C
2F
86
92
A5
34
35
E3
51
00
05
1C
C7
C5
9E
3F
BA
39
D5
0D
9F
A0
B5
CE
D0
04
B6
2E
A0
D6
09
A6
EF
99
AE
3C
A2
A3
4B
C2
BB
E2
13
08
05
EB
86
F7
FD
08
0F
40
9B
38
4A
AF
18
18
11
C5
F9
9C
8E
14
D0
0F
DF
22
A4
B4
07
2E
E5
12
10
9F
CE
BE
20
91
C0
F4
0C
3C
93
2E
2F
28
AC
9F
B8
CD
DC
2F
A6
BE
25
CD
09
3E
DF
26
FB
A0
5A
C5
A3
F8
CB
9E
10
F8
25
06
EF
E6
D9
92
1C
F7
C3
BA
38
3A
D1
F4
E1
53
38
38
2F
DF
A0
00
BD
16
07
14
C0
FF
A5
FC
E2
30
16
A3
8E
41
14
BB
DC
A6
59
E2
AB
D4
F9
37
A6
CD
E5
30
CB
1C
BB
F4
15
BB
3E
30
FE
E0
2F
99
B0
A2
3E
4B
A5
ED
C1
1D
2F
85
F7
35
F8
41
25
CE
C7
27
8C
C1
E3
81
A1
8E
14
D8
D1
94
25
34
4D
C6
DC
10
21
5C
3A
AF
B3
F7
13
18
36
C3
04
CB
C7
AA
C3
53
F2
AD
FA
F9
05
0C
BF
0D
4A
3C
95
EB
27
99
19
1A
CC
B3
2F
BF
D7
2E
DA
12
1D
0E
1B
2F
EF
CA
16
F3
23
D8
8D
88
5D
51
49
AF
1E
A4
16
CE
3C
13
EA
F5
9E
C9
BD
35
EF
3A
E4
F9
43
38
A4
A8
27
C3
32
1E
30
27
12
F3
5D
10
47
89
5F
27
D8
82
C2
FE
D2
30
8E
C3
0D
E0
C0
F9
51
98
42
C4
40
42
8C
A7
06
4A
97
F2
98
1B
DB
F4
ED
CE
23
AD
A1
05
C5
BD
E6
AA
37
A5
E4
E9
F4
CE
E1
92
F9
31
27
57
B0
D6
3E
43
99
FD
84
D3
5E
45
37
B4
DA
D3
B6
06
34
B9
37
FF
F3
5A
F2
DB
97
E5
ED
04
C7
8F
42
06
0E
BD
C6
46
2F
00
FD
94
A1
20
2A
20
3E
F3
9E
D9
A6
A8
32
18
20
48
0B
C7
07
35
A8
C1
08
A9
2F
D4
AD
A0
84
56
EC
0F
84
CF
5A
53
FC
9A
3A
E7
DF
A7
E5
DB
F8
F4
3F
4E
BE
07
8D
F4
05
2B
58
CE
14
4E
C8
96
B8
0F
D6
1B
D1
BE
50
16
D3
81
A6
E5
97
EB
41
97
FE
D5
14
A1
9B
B2
B6
B3
0F
EE
3B
CE
03
A6
E1
AF
94
BA
35
EC
79
18
C4
EF
71
A5
47
D1
DE
A4
DA
14
8C
2F
1C
A2
D1
B5
D7
00
45
B4
E1
02
A1
AE
E5
99
99
FD
9F
C9
C4
99
28
2E
D0
83
A1
0F
33
DB
C2
F0
3F
C8
C2
E8
A1
13
0B
A4
F2
18
58
3A
D9
31
F0
95
A1
F3
FC
0C
87
F9
31
51
E9
3D
FF
F9
2F
8E
42
DF
BC
CE
B6
AC
2E
3E
C2
D0
41
CE
C2
0A
A7
C9
B8
B2
32
F6
09
12
C6
D7
4A
9F
15
9B
AE
94
41
88
B0
07
F3
E4
0B
F3
97
12
3B
C8
2F
AC
AA
22
FF
F0
28
9A
3B
36
02
0B
38
F6
0F
A9
D6
A4
14
F0
9D
3A
CE
BC
3F
BF
C1
3B
AE
E8
14
9A
50
A9
30
B3
01
C3
1C
14
AD
DB
E8
28
3B
DA
BA
46
2C
2E
D1
0D
B8
89
C9
F9
1B
AD
2C
A0
39
B0
0D
25
B8
84
4D
BC
1E
15
DB
8A
CA
EC
96
A4
20
92
F8
AE
B0
41
D0
9F
F8
C5
DF
B9
FD
F5
BB
B1
8C
D3
03
15
32
CD
0F
96
51
E0
30
BD
EC
CE
BC
13
96
EE
D9
B6
0C
B4
F4
20
93
BD
24
06
28
34
15
0C
23
F7
D9
E3
F4
E0
1F
B0
BC
D7
B3
FC
B3
33
EE
9A
91
D8
AA
82
01
87
08
8B
B5
91
C1
C0
8C
A3
91
43
10
DC
95
F7
D4
FA
DE
DB
F1
C4
D8
F4
A4
F1
C9
EE
C1
87
4F
C4
F9
D3
E7
F5
96
E1
EB
2C
91
32
08
E4
08
3B
8B
10
EF
CF
D4
98
60
F3
09
30
05
18
F9
16
A2
AE
F4
0A
08
B3
F9
40
F5
A5
E3
37
D0
D7
E7
C7
AD
BC
EB
30
CF
98
FC
8E
AD
F9
C1
A7
1B
0D
E0
99
FC
20
E8
3B
37
A0
52
C9
1D
B9
2B
9A
3C
8E
17
26
F5
20
EE
C1
1F
97
16
EE
50
4D
3C
F9
1B
00
EF
B0
01
03
FA
0C
D7
E2
D2
EE
AF
94
12
BD
D5
34
08
EB
B1
2F
B3
35
C5
FF
EF
13
D2
C0
E9
F4
DE
19
02
03
6D
F9
3B
DF
76
D7
5F
87
DF
09
BC
A4
35
D9
9D
1F
13
E3
EA
D1
DD
D3
4B
8C
47
25
16
97
C1
0D
B3
F2
86
2E
45
3C
51
D3
4F
8E
90
2E
DE
93
F0
14
B7
B0
BB
53
09
B3
A0
15
A4
1F
5F
A9
09
96
A9
1D
26
23
32
14
C0
CD
AD
BB
C1
C8
17
25
D7
17
A2
E9
20
CA
12
4F
04
A5
D4
3B
B9
C8
1E
F2
09
DA
B4
EE
CF
05
0C
40
38
B9
AC
29
BB
A0
C3
BD
FB
35
C8
02
87
51
90
1D
20
09
C9
E1
E8
D4
25
C4
31
3F
C7
5E
DF
0D
F3
CC
5F
BC
BB
12
AA
1C
0C
86
F2
FE
CD
C3
9A
42
02
3B
0F
19
12
8F
E5
FD
DA
28
F9
8B
9B
29
09
FF
CA
CF
14
DC
3A
B1
36
D8
14
14
38
C0
DD
AD
2E
B3
B3
CD
F0
13
4A
AD
DE
83
EE
F9
8A
16
B2
14
A8
87
B6
AA
1B
F5
F4
F0
F8
27
8D
E0
A2
39
E7
9C
8B
F5
8C
29
9C
AE
0D
98
1D
82
33
25
DF
FD
04
04
B1
0F
1A
0E
5B
1A
4E
C8
CF
1F
9D
A1
D6
E2
AB
A4
F8
CE
90
D4
3F
DF
26
B9
3B
19
32
BB
0E
F7
17
FC
0A
BA
D7
86
27
BA
47
93
B1
FA
C5
CE
40
FB
A6
CE
0B
4E
8A
13
3D
38
2E
EE
20
98
0C
DD
1A
17
90
FC
CF
2B
D3
0C
18
34
F5
E8
EA
18
B3
BE
E6
FA
4E
85
E1
AA
32
49
D6
E3
02
38
1C
9F
FC
2F
A1
20
09
E2
93
BA
C6
BE
B9
84
45
3C
5E
3F
2E
C4
C7
22
36
AE
DF
EE
C2
E2
C6
BD
3B
F2
1B
42
2E
34
3C
F6
1B
3A
97
23
24
0F
01
5D
27
83
0D
1B
DF
97
12
22
A1
42
36
17
8C
B2
3E
C6
13
CF
AC
A3
48
1C
87
35
93
39
22
18
58
3F
B3
D4
DF
94
B7
AF
FF
CD
A5
92
ED
B4
3A
CB
07
46
3E
1F
C5
ED
31
BC
22
A4
C6
F7
96
FA
31
26
13
DC
F2
0A
FD
89
2C
DE
8C
86
4C
E7
B0
E1
EA
C9
A0
AB
88
0B
C7
16
EC
DD
19
44
95
12
32
F3
EE
F3
29
9E
04
CD
B1
00
53
01
C0
33
CC
B5
C2
BD
CC
B0
B2
23
9B
EE
DE
C8
F2
E9
12
0A
89
90
87
3A
ED
16
E1
CA
35
A6
DF
9F
24
34
BE
F1
5D
1F
D9
02
C1
A8
D6
AB
95
96
05
CB
E8
E9
3C
F1
E3
F8
F7
A5
10
9E
E9
E4
BA
DE
F8
06
58
31
87
9F
E5
12
41
B3
D7
C5
2E
FD
00
AE
26
1A
03
FA
E1
22
0A
04
93
2A
0A
E5
F3
FB
AD
DA
FC
8F
BA
E8
88
1F
AA
84
30
93
EF
13
9D
2C
E6
02
CC
36
29
0B
0A
21
BD
00
35
F2
BF
2C
0F
DA
2D
35
56
30
BF
9C
33
1C
01
CD
E3
07
87
C0
C9
5E
1F
AA
0B
1E
3A
36
AC
C7
9E
F5
A9
EF
A6
81
98
DF
30
3C
CC
C9
46
33
0E
1D
D2
3C
C4
1F
EC
CE
C6
3D
29
38
4C
B0
AC
87
F9
BF
09
3E
FD
44
2C
25
D0
FB
0C
C3
28
42
5A
19
E3
3C
5B
EE
FD
09
38
B5
E5
CE
AC
12
CE
08
CF
CD
E4
F0
C9
1C
CC
D1
2D
CE
CB
DE
2F
64
51
B5
14
1C
06
DD
FF
D8
35
41
B0
2A
82
16
FB
03
10
E4
D6
DD
3F
DA
40
B3
1C
C6
A1
BD
BE
1F
50
69
F7
F6
D2
89
B7
87
20
3F
4A
BA
0E
32
98
55
1A
F1
1D
D9
38
0A
43
08
1F
AD
B6
02
90
E8
88
D6
CC
85
E9
33
AF
2F
19
9D
38
AF
B5
29
D1
E0
FF
D4
0F
EC
D6
36
1C
C8
C8
0D
EE
8B
2A
30
2F
FA
DC
8C
01
A0
1E
DB
14
FB
02
33
45
CB
CE
0C
22
C4
8E
F4
2E
9A
04
15
3A
EA
2E
FC
18
3D
F1
3A
20
A2
17
D2
3C
46
F6
A9
FB
F2
9D
E4
C2
9F
31
10
AA
32
97
DA
9E
F4
DA
B5
E6
24
59
33
17
94
B7
3B
F2
11
FC
D5
1B
5A
13
04
B9
8F
1A
8A
51
B7
05
D9
C0
A6
A2
36
AC
BA
09
3E
00
F1
3E
4D
0E
E8
09
44
E4
FD
50
F1
1D
50
EB
BF
4F
A6
26
BE
60
23
54
B3
15
D3
AC
AB
0D
A8
F6
A2
A1
FA
3C
D9
CF
C5
DA
2B
E8
BA
D7
10
BC
C2
DC
DA
A3
86
AD
9B
EC
13
09
97
AB
55
9D
31
E4
2C
4C
FC
C2
82
AB
1C
86
32
8D
2C
93
2A
00
18
30
21
33
11
AE
85
DD
A4
5B
FF
A8
0E
B8
FB
8F
EB
FE
3A
3C
41
A4
D2
5E
CE
C1
E3
11
BE
F8
22
1F
92
38
A2
56
06
F8
92
29
C1
54
1E
FB
97
C3
F1
96
35
99
DC
12
D0
B8
D5
BD
1F
0D
F6
F8
E2
FC
E1
47
A5
E4
54
08
E6
F5
C8
DD
E7
B9
1B
BB
28
D8
B0
EC
0D
17
8C
5E
CE
A7
B9
26
4C
87
EE
0D
31
CB
E0
97
BD
A7
28
22
04
BF
91
12
03
2F
DC
18
2A
A7
FA
8E
F2
3B
BB
C1
14
BF
EA
E1
DF
3A
FE
BB
DB
86
AE
12
C3
EA
BF
26
3F
C8
17
88
9B
0C
A7
96
24
2C
35
B6
DC
BD
F2
3C
D1
CD
9D
28
B3
B6
86
06
F3
B6
D8
EF
B7
57
9C
07
08
AC
B7
C1
0E
39
D5
41
B0
CA
2E
D4
36
2C
2A
EC
03
DD
E0
5F
00
D5
A0
31
D8
B5
B7
AD
E2
C0
04
B9
1A
D0
CE
1A
E5
CE
8C
00
B1
33
1D
F2
B4
3B
D3
E7
9D
EC
2B
32
A1
CD
BA
0D
25
3F
EB
E4
8D
EA
F8
D6
DA
4A
31
A2
DA
31
FF
60
DE
36
15
A8
BD
E2
23
CF
E1
22
18
C3
36
DA
0F
27
E9
93
A1
BC
28
02
4D
E3
BB
30
B8
8C
18
B8
A0
46
28
28
21
F1
5A
DA
BF
57
35
BD
B8
4A
FB
CD
93
E8
34
AC
FF
0C
10
EC
B0
11
F1
19
88
91
CD
DA
D1
2A
8D
3F
D0
3F
0F
15
D7
EE
9B
27
D6
0C
48
D2
B7
DA
1F
EA
F6
37
CC
FF
C6
52
0C
C7
D1
1C
9B
E9
84
BE
03
17
F7
89
18
9A
C9
C2
FA
EF
1D
E9
A0
D1
11
DE
BD
22
98
4A
CC
44
D1
CB
FF
B4
F7
9F
83
BB
D3
D8
37
D6
DB
FA
CC
3D
23
27
DF
CB
32
F7
5A
34
2C
EE
49
B1
34
ED
87
FA
5F
C7
DD
27
AF
32
B8
35
3E
2B
A4
B2
06
C9
1E
12
19
F7
D9
4D
C0
41
3F
B2
FB
8F
A4
1A
B5
15
F2
17
26
C4
B3
CD
E1
15
08
5D
8A
E2
D9
AA
DB
C4
C5
23
93
B5
A4
CE
CD
15
23
9D
13
D4
59
EC
1B
E7
91
F8
31
07
D2
40
C7
F4
00
30
2A
D1
BD
13
CD
D3
1B
EE
22
CE
B9
C2
32
28
44
D7
09
1A
A9
DA
39
01
23
A5
F5
37
F0
B7
E0
FD
00
CD
FF
AB
A5
8D
24
2D
1C
D5
2E
19
9E
35
D4
03
F4
03
12
CB
BB
11
FA
DF
25
34
E4
17
B7
4C
C9
2B
05
5D
E1
46
18
2B
AB
A2
3E
23
41
C1
86
FD
98
B5
40
98
F3
BC
B2
1A
1C
AF
98
CC
E8
BE
B5
53
CB
CF
B7
48
39
20
19
E0
E5
01
00
2C
FF
1F
16
BC
32
13
5D
40
28
8F
33
32
09
A6
D1
14
15
B9
30
4E
9B
BD
B7
DB
DE
4B
D2
33
55
9A
01
BA
C5
BF
19
2E
40
CF
AA
91
27
E8
4F
EC
9A
41
FB
35
F6
0D
D6
18
CB
CE
A1
0D
31
1E
A8
1F
E9
E6
2D
23
3F
11
B6
10
07
01
60
08
C2
E2
BC
30
AB
BA
35
46
07
2A
9E
28
A3
34
C5
E2
E2
16
2B
90
C2
A1
C3
24
FA
35
EF
E8
BA
FE
F2
A6
EB
1A
CC
ED
9B
13
11
DE
16
5B
91
3B
8C
A9
08
FD
10
1C
0B
A7
A3
BC
2D
E1
C5
09
B9
C3
3B
3F
C2
1A
B4
94
B5
0B
F2
D5
F3
C8
F9
32
F4
D3
AB
A6
D5
9F
96
CF
DA
C2
10
D5
E5
41
36
AA
E6
32
D8
B1
18
34
92
AA
28
FC
0C
A1
BE
17
C1
D5
CB
D8
B6
05
B1
BA
36
CF
CC
CE
CA
8C
00
B8
8F
E7
F2
32
92
C4
45
8E
FE
DD
47
98
31
C6
F5
EB
ED
4C
F7
FF
F0
E6
B8
D6
B8
A8
EA
90
C3
AF
04
05
CE
C6
99
5C
E5
22
52
38
3A
A1
2D
C9
1E
FC
21
C8
CF
52
94
4C
19
85
B9
3D
04
0B
3D
8F
B3
B2
EE
BF
E1
5C
24
DB
19
03
ED
32
3A
37
00
89
89
22
83
27
FC
37
20
E4
94
8C
AB
D8
C0
C7
1E
E3
D3
BA
5D
10
D3
D5
40
30
0F
3E
31
42
BF
AB
EB
99
26
FA
C9
45
53
27
BE
50
8D
0C
32
50
B9
BE
D6
96
00
42
12
2F
16
0F
21
DC
0A
A9
D5
0C
9C
01
13
D1
2B
17
D0
5D
04
BD
E8
D5
8A
AF
3A
FE
F6
36
F1
8F
45
92
BE
E6
3E
E7
14
A0
BE
FF
F3
35
3A
85
41
08
8A
58
B8
E1
D9
09
EC
A3
3C
21
1B
EE
A8
45
A8
82
EC
8E
1F
26
EA
A5
B0
AC
CA
DF
A3
DC
D3
E5
3C
ED
31
51
9E
AB
58
4C
40
BC
FD
31
F3
07
C9
13
E3
17
A0
EC
08
1C
3A
C4
13
A9
9C
EE
CE
84
FE
8E
AB
32
85
31
91
29
4F
B0
A2
16
BB
1B
DA
02
37
00
01
0B
50
2D
CC
E5
91
49
83
36
E7
DF
E0
D0
B6
8E
CF
F2
14
B0
28
CE
27
AE
DD
28
3C
FD
B1
56
BA
B4
3E
BE
FF
B7
0A
CE
BB
DF
01
AB
EF
F0
A1
E2
38
26
BE
D2
12
F9
1B
53
18
57
C1
15
0D
2C
CA
49
92
D6
96
1C
52
FC
11
01
B1
DE
88
F0
D0
C8
AD
CB
B8
F8
A7
DA
CA
28
2E
35
C5
11
B5
A4
12
2B
84
A4
EF
11
35
EB
A1
BA
A9
DB
AA
35
AD
DA
C7
48
16
F3
2B
DA
BD
B2
98
DB
03
C2
3F
C7
A5
51
C5
F6
AB
00
F0
CD
24
1F
CA
96
20
CA
A1
F9
B4
55
26
A4
3B
BF
D5
9F
D1
D9
14
2C
9B
45
0C
23
42
D1
0D
E6
B3
A8
E5
59
33
E7
D9
B0
CC
B9
AA
D8
96
A2
81
B0
53
05
F4
2C
DB
03
B9
CC
35
00
22
4B
DB
CE
D3
2E
04
4E
1D
57
F8
B4
E6
D9
18
1B
F0
E1
8E
52
F8
EB
40
2C
AF
AF
27
29
2C
19
13
EB
FA
46
98
41
31
BA
DB
01
01
4C
20
D3
3C
AF
2F
20
0C
14
0E
29
86
2C
E7
A2
E7
D6
3B
04
8E
59
15
CF
53
49
01
50
3B
A2
9F
4A
39
19
96
E8
40
0E
DC
EC
18
52
A6
10
CD
D2
15
CD
8B
DA
DF
D9
8E
AD
9C
46
BF
10
B5
EE
1F
1B
16
AE
B2
4C
93
B6
22
96
5A
A0
C0
39
1F
3C
DC
C1
0C
DF
A9
DA
4B
FF
08
35
D5
31
2B
2A
81
2A
10
DA
C2
D9
21
60
30
41
BA
1C
0C
3B
BC
32
34
DD
B1
20
4C
CE
32
1A
0F
BA
D6
0E
EE
D9
14
1A
0F
38
0A
A5
0E
B0
E5
3F
3D
D7
E4
90
E6
19
F3
16
DF
FF
F8
EB
37
D5
3A
CB
2A
CD
B5
01
C7
0B
CB
15
30
D8
DE
98
15
00
0F
C4
F4
D6
0E
B2
BA
C4
22
F7
15
49
32
E4
F7
B3
D4
BE
B3
DA
0C
01
CC
16
2A
01
F0
44
34
A1
8B
55
06
52
91
1D
C1
A0
58
1A
CE
FA
8E
ED
F4
36
36
B1
9F
10
D5
17
BD
AC
BE
2D
BF
DA
AA
0F
3C
BB
ED
03
E2
1F
BD
3C
E2
A7
06
F5
AC
E5
41
4F
B9
AB
4C
93
EC
8B
A5
B0
05
A8
15
DD
26
37
B6
ED
0B
CB
DA
DA
27
A7
94
36
E1
29
E1
28
08
39
A1
BD
A3
12
37
B5
12
A3
11
08
B0
D5
FA
E3
A3
AB
F1
FF
13
2C
D2
46
2A
28
E6
FE
50
E3
A7
90
EF
3E
F2
FA
BB
20
CA
9C
A8
93
D7
D2
AF
24
A0
12
F4
E9
A2
D6
17
A2
D0
E5
C4
FC
AB
CE
4F
DE
39
F7
F6
28
E0
41
BB
DF
B7
CC
D9
F2
EE
E3
11
3E
F0
AE
3F
5B
3A
F9
F8
C8
14
C5
E4
4B
89
EE
1E
0B
07
B0
DC
17
1E
1A
E5
42
21
EE
A0
8F
B1
0A
25
39
CE
EF
48
EA
15
CE
19
ED
15
09
B5
4A
C0
FA
45
26
43
24
2C
4E
D6
BF
F4
AB
A5
F5
AD
0A
06
D6
19
FA
BE
1F
1E
AD
DF
24
1E
E2
19
0B
33
60
01
1D
F2
F7
DD
CE
0D
0D
A0
F9
8D
4B
CE
85
D3
39
01
1C
10
C8
F7
AF
F6
4C
19
EC
A3
93
18
B7
FC
CD
DF
15
51
D8
41
06
B2
17
C5
05
40
AF
15
DD
3E
22
21
93
AC
B1
1D
A2
AA
AF
C8
1D
B5
BD
38
E4
8A
3F
DF
36
BD
2A
29
A7
8D
21
AF
B1
EB
05
57
0E
34
9A
A7
1B
F2
34
32
BA
DD
41
CF
1A
E4
87
12
25
89
4B
9E
00
F5
3F
24
A5
07
A5
20
41
83
D8
46
FC
AD
32
3F
92
2E
BD
1B
B0
E8
37
98
1B
F1
AA
07
A4
9B
A3
90
0F
34
C9
D2
17
F0
CC
0A
49
12
3B
58
20
98
AC
C2
97
15
57
EB
B8
D8
D4
B6
A1
C4
8F
F5
06
D8
F2
3A
39
B4
9F
3F
E8
C5
BF
D3
5A
F7
56
C8
F9
F7
25
E0
D5
E0
2F
15
20
03
FD
0D
BD
9B
ED
8F
CB
B8
59
92
AC
44
F7
3E
28
AE
53
72
11
30
12
0B
11
9F
F9
2F
3C
E9
C5
91
E3
24
E4
2A
41
D5
10
DF
03
A6
48
F9
19
52
27
F6
A5
9D
E3
12
5A
13
F3
F3
06
01
0E
F3
31
A8
BE
E1
2D
DA
54
E2
BC
84
DF
AA
BB
A4
0E
A5
10
E4
15
E8
39
BF
CB
FF
AE
3F
4D
A7
D9
2A
88
B9
D3
B6
0F
2E
3C
23
51
20
F6
F1
91
2A
56
F2
24
04
88
13
8B
A7
AE
1B
C5
FA
EB
36
BE
47
AD
3B
41
D1
A5
8F
5E
2D
33
07
B8
CB
D6
E0
3A
90
DF
0B
22
C6
15
EB
1B
FF
0D
8B
35
D9
18
FE
38
5A
DB
E7
05
B4
F1
EC
F5
8A
40
91
EE
E4
DB
B2
B0
0B
2F
3E
FF
F1
E5
E0
40
DD
ED
23
41
B3
B1
1D
D1
19
A0
C3
E6
47
F0
9A
FE
1C
20
2B
40
E3
04
DB
C3
30
4B
91
5E
BC
C9
27
91
5E
CD
0D
DA
8C
5C
18
39
F3
F9
D0
BC
1B
1E
C6
3E
0E
E4
46
B8
D9
D1
38
FE
2F
28
BE
04
3F
42
3E
84
41
F1
11
21
DD
3D
CC
35
18
35
88
16
35
1F
25
B2
39
3A
5B
4B
04
0C
12
92
B2
26
E1
1A
09
00
4F
2A
B3
11
D2
48
C4
D3
8F
2C
A7
C8
84
DB
C9
3E
DC
37
F5
AE
AA
17
06
39
C4
9E
3C
0B
D8
42
33
DE
A6
FE
06
39
BD
D5
84
C1
B2
1A
0D
0C
AD
30
AC
DA
FE
FD
1D
C8
35
27
2F
C6
F8
A3
86
0D
23
A7
F0
23
00
9E
36
D3
61
BB
B4
21
E7
EC
2E
06
AC
C9
51
24
E9
E6
A2
AF
51
50
0E
A2
C6
0A
93
B5
D4
33
29
AD
DE
9C
F8
BE
1D
E2
63
DF
A4
08
47
C4
D0
29
DD
EC
18
27
18
F8
DC
1F
14
35
A6
AB
0A
0E
EB
B6
D1
86
B9
C9
DD
30
3E
56
39
19
D7
A9
EC
10
F8
CB
53
05
1D
D9
08
ED
FB
1B
90
AB
D7
C2
34
F1
BE
ED
C2
95
1A
2A
16
09
C5
D0
F3
F7
26
34
07
C9
B6
F2
5A
C2
FF
5E
2E
F8
EB
FF
F3
F1
81
18
3F
39
E3
08
F2
98
C1
CE
D3
EF
B4
4B
C2
3F
20
47
22
F8
97
F1
F4
BB
EE
44
0A
E6
50
B5
BE
C9
1C
1D
8E
2A
06
E4
31
F5
FD
D7
BE
DF
E2
4C
C6
C4
CC
C1
C5
E5
B5
3F
20
B8
A1
4C
A3
20
5C
13
37
AD
FB
06
C9
F0
E6
AA
F2
89
4B
30
A7
CF
E6
B5
3A
5A
1F
BE
3E
D7
A2
95
1C
CD
86
15
03
21
BA
FC
A8
1D
B1
01
8A
48
9C
B1
B6
32
5B
21
43
83
95
14
97
41
C0
0C
24
40
BC
A3
C7
CB
D0
9E
01
BD
C8
F9
E7
C6
18
D7
A1
48
A8
1A
36
C9
16
00
02
2A
1C
DF
DF
A5
B1
2C
C7
85
A0
9F
B8
FC
89
02
F4
B8
39
F4
3F
B8
88
D6
B5
F2
D7
BD
C0
2D
A4
E6
BD
E4
BE
B2
1C
5F
B8
05
A2
93
B9
30
31
9D
CE
2B
97
D0
07
4D
1C
5D
95
39
2B
BD
F0
30
B5
84
29
C1
3A
88
A2
BC
1F
A1
E8
03
01
00
1F
C0
FA
A4
BA
EA
3E
B3
FD
D9
E8
DD
E2
86
8A
C9
93
1F
8F
B6
3D
38
57
C7
11
25
58
D1
93
1D
BC
E8
AF
CA
5D
EA
8A
FE
84
13
48
EB
F1
0F
83
EF
36
A1
3D
0C
FF
C5
25
84
32
FC
2A
44
A1
BC
AD
2D
B6
B5
A5
08
02
A9
9D
16
0E
13
2D
37
DD
38
E9
E1
23
A3
A9
B0
20
24
AB
F9
4E
32
DC
FA
C8
F1
A1
4E
AE
FB
B9
12
A2
CB
BB
A0
27
EB
D2
2A
10
B4
88
8C
FA
3E
BC
1D
D4
E1
38
9F
42
9B
D1
E2
FC
FB
07
D7
D1
91
C7
A2
C3
D4
8A
07
9C
BC
42
05
F6
5E
88
38
2E
50
AE
FC
2E
29
23
B8
D7
C8
DE
D9
3B
07
CA
16
CE
AA
2F
E1
D9
EB
E6
0E
FB
2C
A2
FC
14
25
B6
F7
8E
18
16
56
30
32
15
3F
F7
00
12
30
F7
F5
8B
28
30
22
AE
8F
47
CD
2B
E5
1D
0A
BC
B0
9C
E2
00
CF
D5
A2
C9
DA
24
33
AA
DC
AF
9D
AA
E0
2F
5E
A4
47
D3
14
1E
02
B4
AA
98
A2
BE
F5
F2
D4
83
49
85
0F
8B
2F
30
08
D2
B9
DF
02
46
22
C9
EF
BB
05
F4
C7
45
C5
06
84
49
FE
9C
14
22
B9
31
3C
89
C6
F4
21
F9
42
8D
CE
95
B5
CB
12
BC
1A
25
E5
28
D3
DC
A7
08
FF
94
37
F4
E5
E8
BD
D6
A6
0A
1E
F4
3E
0F
D8
A1
DD
C5
F2
81
FE
BF
C0
17
99
C8
B7
21
4A
AB
1A
0F
DB
CE
0E
FC
14
BB
E0
11
5C
E0
AF
E4
4A
C2
2B
03
C9
88
25
C9
DC
AC
31
25
08
A9
10
D1
5F
E7
FC
4C
1C
08
00
20
E5
B4
25
81
B4
2E
C9
D8
DB
DB
1F
3B
B9
C6
07
A7
96
B8
34
A1
A4
0D
3D
0E
32
3C
EB
5E
EA
CF
0E
46
EE
E3
DA
FC
47
B3
DE
EB
0C
20
08
A7
FE
CB
2E
B9
DC
D7
3A
CE
F9
99
AE
9C
DF
FE
A3
0E
A7
0E
93
37
D3
30
DC
8D
44
19
32
00
CC
31
16
EB
02
87
0E
01
F7
DA
98
37
BB
C6
18
0D
23
F6
4C
27
14
17
C7
C6
B2
F6
FF
CE
2F
57
5C
AD
AA
13
DA
BC
24
B9
32
39
9D
F5
BB
1A
11
C4
BA
96
F8
0C
2E
B1
DD
9F
00
30
EC
8F
F5
BE
FC
38
20
C6
A8
A5
F0
2B
5E
9A
00
B4
3D
FC
CC
42
13
AB
51
BF
48
19
11
F2
9B
02
F5
B6
D3
CF
BE
D1
A2
0B
B2
8F
B6
41
87
AD
D9
BE
27
21
1B
FC
E6
30
94
C9
45
F0
A0
B0
05
F8
0E
08
95
E3
D8
05
AE
D9
FB
B1
EF
B9
2D
08
12
CC
F9
E8
3E
B5
FA
F8
FE
4C
FE
1A
FF
8E
CC
9B
1B
47
AD
EB
0F
C7
9C
D4
FB
05
CC
0C
F0
39
AB
3B
B0
0B
60
31
5E
C4
2E
58
94
55
1A
BA
F3
0A
3C
37
23
32
88
91
15
FC
99
A0
BC
92
11
D5
C9
04
03
C1
03
C5
C2
1A
A9
B5
1B
57
3F
0E
1E
46
B7
88
E2
EC
C0
53
DE
FA
24
A6
ED
D1
A9
30
F1
44
2D
B0
21
D2
CD
07
DE
2C
FD
84
10
AD
C6
CB
B9
91
F1
76
F4
C5
F7
23
ED
CC
A5
4B
C2
EA
EB
EC
4F
38
C6
38
B4
B7
25
E1
5B
01
BA
32
12
E4
E8
5B
EF
20
F7
71
DD
14
01
4D
32
0A
90
A1
30
10
41
38
28
C0
F4
8B
FE
27
E1
D8
5D
AD
D8
EB
18
01
88
D3
BC
16
C0
44
DE
84
B9
3F
BE
A6
E5
D8
37
CE
F0
D1
CE
0B
3C
24
3A
8B
13
2E
CE
2C
08
F1
DA
AC
A8
DE
B9
0D
C8
78
B0
09
30
FD
E6
FC
1B
BB
A7
FE
2B
92
B9
34
D5
29
F0
0A
F1
EA
44
34
10
DB
10
D0
25
C0
10
AB
3E
C9
E0
A4
07
FE
CE
FC
9E
30
D5
A1
50
DC
C0
A8
AC
C9
24
97
ED
D4
E0
F2
49
9B
38
1A
22
5F
A7
24
EB
5D
D8
E5
F0
ED
3A
3C
2D
09
F4
09
46
EF
3A
AD
A1
B9
EE
22
95
CE
ED
0B
3C
0C
61
5E
8A
5D
39
29
4E
A7
22
C8
12
44
20
01
F1
45
DC
C1
B9
91
CE
09
49
B0
3E
EB
21
22
45
11
DC
E2
15
EF
D7
B2
F8
EA
BC
A7
1F
A8
03
E2
B9
2C
99
D4
DC
F5
8A
DE
AE
53
A9
E1
2C
AD
17
9B
0A
BE
EF
1B
0B
11
FB
45
88
BE
F1
D7
B3
E3
0A
53
0D
EF
CE
48
1D
8E
5B
AD
F3
A8
E8
EB
44
EF
94
E9
0B
B6
46
DD
3D
E3
2A
A5
F8
C5
E7
FC
F2
18
2D
16
A2
D0
D0
AF
8B
F2
2C
94
BB
EA
EC
99
EA
30
AE
23
EC
F6
BC
FD
18
FF
18
EF
40
98
CD
AC
2F
F7
52
5E
9A
9B
88
17
F6
F0
4A
30
3D
FE
60
2F
5E
AB
33
88
45
08
AD
0D
9D
36
40
FA
B8
D1
E2
26
11
A6
C9
50
E5
AB
E0
A5
0B
E8
D0
BF
E9
5A
C4
D9
D7
10
1F
01
D8
AC
F2
9D
C8
50
14
33
30
C9
F5
23
E7
F9
FF
B2
FE
09
F8
2E
3A
CB
BE
F4
0B
3D
FB
E3
36
E2
8D
C1
17
FA
5A
AD
8C
19
9A
47
8F
85
04
C6
D4
81
35
E7
3A
D1
F2
46
83
16
5E
19
19
CF
4B
0E
5D
B8
DD
C0
0D
D3
AA
CD
3B
A1
91
55
3C
16
BE
2F
48
DF
0C
B5
9A
B5
B0
33
C7
F9
36
C2
5D
3A
01
C9
C4
EF
D2
83
C9
FD
EB
D9
33
DB
90
16
C8
FE
C7
C7
E5
FC
AE
E5
B1
8F
F5
DC
1C
F0
B6
DF
D0
12
F1
AD
E9
1B
9B
36
AC
C5
5E
87
26
53
81
D6
F9
25
E8
EF
36
D7
4E
AE
09
90
90
36
CA
18
59
B0
B9
4D
30
B2
CF
E5
DF
CE
E6
E9
E5
16
22
FE
CD
C7
8B
A1
0E
CB
39
C1
05
E5
87
BD
DB
B2
FF
1B
DF
12
49
F4
EF
E4
51
D6
E3
1E
27
11
57
33
F8
47
99
A6
AE
D2
BF
F2
1A
96
2D
FD
8B
E7
E4
FE
B7
1B
1E
89
02
C8
1C
0A
54
09
84
2D
21
2C
04
BA
E5
A6
F9
CE
A2
E1
0A
C3
5C
03
D3
31
2C
BC
33
18
A0
59
DE
BC
CE
B2
1D
95
B2
C3
97
0E
A6
B6
E9
32
18
06
97
C3
B3
82
10
C7
A6
D9
01
A9
BA
08
1C
36
3B
EE
C6
CF
46
AC
5C
CE
E5
BE
DA
8E
55
98
49
39
B5
D3
36
BC
05
3C
EA
88
25
11
CD
C4
01
34
F9
BB
EA
F6
1F
83
5D
C6
D4
8C
3A
FD
16
F2
4A
28
15
BC
EA
BE
A7
3C
28
26
B8
3A
09
30
18
C7
1B
F3
B4
C8
3B
0F
41
40
A9
51
5E
01
50
3A
23
A6
EA
C3
5A
A3
CB
E7
28
46
B5
8C
EA
2F
28
11
D4
0E
2F
2C
39
0A
40
09
C2
9E
C0
36
CF
A2
50
98
FA
A6
D1
C9
26
3D
FF
AC
42
A7
DF
1F
2E
D0
48
2C
BD
2A
3A
9B
20
EA
CF
04
EE
CC
30
5A
F3
A4
A4
26
98
AD
36
A6
B5
3E
D8
F9
32
2F
92
EE
51
B0
A0
00
20
CC
FC
D8
91
27
13
A4
F6
BC
47
E0
BB
27
E7
A3
D0
0A
C4
EA
3F
0C
30
BD
E6
05
CF
3C
2F
AC
22
01
18
AE
85
1D
88
5A
3E
FC
57
14
BD
21
11
FF
DF
98
12
A7
59
DC
60
8A
D1
DA
F9
15
31
B7
D6
C4
EE
3C
19
A0
F4
2E
8E
CC
39
8B
BF
2D
3C
2E
60
A6
5A
BB
B4
D4
3C
AE
25
0F
A4
28
CE
2F
87
A4
3F
3F
A5
91
BC
05
EE
ED
0E
AB
EB
41
A4
F0
AD
B9
1D
14
14
05
A1
0E
AD
A7
51
B8
FD
39
E9
4D
F7
3B
2B
F2
4F
87
B5
0C
DE
BD
99
D0
DD
B2
55
DE
56
35
E1
33
4F
9E
DE
FB
A7
DF
A7
C5
A6
D2
B5
C3
F8
37
D1
C6
1C
3C
58
26
23
87
E3
FD
C3
B3
B6
99
E1
D9
5D
06
F0
9A
D0
8A
10
A5
56
FB
03
0E
C6
20
B4
2D
C4
E1
23
06
D8
E1
C1
09
2F
FC
FE
E7
E8
C2
27
A0
2B
E7
B3
BE
A3
29
F9
8C
E7
E5
C9
0D
EC
B0
AB
F9
D4
D7
22
2D
A1
DE
3D
BA
95
05
36
CC
47
9C
2D
34
D7
89
4D
1D
F3
A7
FB
0C
C7
E5
40
38
8C
4F
40
01
C3
2F
27
87
B5
F8
32
B3
BF
B6
DB
39
97
F0
E6
59
D9
06
B3
F0
29
E8
34
A0
40
DA
0D
AA
0A
FE
1A
22
1F
C4
D4
89
E0
2E
B6
DE
3D
CB
D6
1A
E8
F6
EA
AE
15
9C
2F
90
3B
36
27
BA
B1
E5
9C
E2
15
B6
AA
9F
36
8B
CF
25
EF
2B
B7
C3
DA
B2
EA
FA
01
AD
04
E4
54
07
16
BA
BD
AB
5A
F2
A4
8E
04
CB
E4
53
B1
C0
A3
03
BD
0E
36
0D
AE
E4
85
32
E1
A4
CE
BC
29
18
EE
A9
F5
2E
FA
88
0D
1B
2A
F7
E5
B6
81
29
B0
FF
CF
FA
2D
27
45
BA
A0
92
A7
26
90
F2
C2
3B
FB
F9
BC
02
12
29
1A
CC
5C
AB
E6
1A
E3
CD
42
A4
EE
9B
B6
E2
DF
C7
C0
ED
19
28
B5
D9
A4
EF
C2
04
E4
48
4B
CE
08
86
C8
19
0C
DA
F1
A2
17
E7
F5
4C
F8
F2
2D
2A
0D
E5
CD
27
B8
00
F6
FB
04
EB
B8
3F
2F
2F
43
0C
C8
F1
F8
16
39
FA
57
FA
E7
07
E1
3B
8E
9F
15
DA
EC
89
B1
1E
8D
EB
88
40
F2
A8
32
F3
43
2D
AD
D7
C7
17
AC
B8
CA
F2
3D
40
B9
C0
22
15
B7
83
27
D1
EC
AB
26
04
2C
0A
FD
22
A8
E3
17
E6
30
61
A9
B3
43
02
B0
8A
F7
30
4F
CA
2B
45
3C
AE
FE
82
2E
83
56
B0
19
BB
28
BB
A2
1B
03
20
FC
20
FA
B5
31
AB
33
9C
A4
CD
35
41
DD
3D
BB
51
9F
FA
9F
95
4C
30
FF
FE
52
0A
AD
B0
D8
F2
87
83
49
2F
36
25
D9
DA
50
E2
B3
B8
C5
BA
B8
F1
40
34
0C
BD
C3
23
1D
36
17
E6
E2
DF
83
1A
16
EB
0A
D0
C0
CF
BC
37
2E
DB
2F
14
EE
82
31
DA
59
AE
88
09
13
C6
8D
A6
5C
F5
EF
87
A5
18
04
8D
3F
D5
BD
13
AA
3E
A3
CF
E4
C9
EA
97
30
81
13
9C
5B
F3
03
32
27
F0
16
AF
C1
C5
AD
0F
A2
2F
C8
AB
99
F6
DC
26
B6
AF
F1
2A
35
84
10
9C
20
E7
45
D4
C8
37
24
42
BA
15
D0
14
56
BD
FC
EE
D3
D8
84
C3
96
35
8B
14
2A
A5
31
CC
F9
19
42
C9
11
F0
F3
07
DF
98
B1
E8
00
C6
8E
E7
26
B0
27
37
F3
F0
FD
31
03
AE
12
8D
AF
E3
2E
3D
B3
13
02
1B
97
01
EF
AD
FB
CF
1C
F1
CC
00
8E
BC
B8
E2
60
B1
CE
E1
0A
3C
25
36
CC
09
FA
B3
53
04
24
A2
0D
8A
A4
05
4F
BF
16
40
33
3F
0A
F5
14
C4
29
12
1E
9B
36
59
CC
AB
B4
CF
29
EB
D5
04
0F
C7
BA
3A
F6
95
E9
B6
08
E3
EC
EE
B9
B6
A7
D6
11
E3
46
9F
EE
12
47
E7
07
D9
D3
C7
23
D8
DC
11
09
02
D1
8B
D5
A7
B5
8C
D7
2B
29
08
F4
E8
B3
3E
96
EA
B6
F5
E8
FB
58
A9
C9
C2
F9
F6
1B
40
DC
8C
18
DC
D7
10
27
42
9F
0D
60
A3
42
21
2A
34
8E
2F
E9
38
37
FE
51
CF
29
4F
B5
F1
A3
ED
1F
95
26
1B
5E
C3
43
E4
3F
F5
1F
AD
CE
EE
F0
8E
03
E9
9A
FA
CE
AB
3F
D3
47
28
0F
51
36
CF
8A
19
A2
B2
53
19
56
51
AF
26
F3
32
D0
3C
F2
03
DC
F8
39
AF
D4
B3
82
3A
40
02
60
1E
B6
F2
EA
EC
04
FE
3F
3E
CF
B3
AC
4A
D5
C1
CE
06
1A
13
B4
36
F3
94
D3
C9
FF
A1
D8
EB
EF
21
13
A6
D7
60
C8
EA
E7
C1
85
BF
F5
FB
FB
17
58
00
3F
B4
B4
30
4F
10
CF
9A
84
42
FB
1D
89
BE
A2
88
B8
F3
F4
09
3C
EC
82
40
33
A6
21
12
C2
A5
60
C5
E6
24
D7
96
4E
10
A5
2D
0A
2A
E1
CA
9E
1C
4B
86
3C
94
E6
5F
95
F5
BD
3F
3E
D2
53
D0
22
46
4E
27
5A
0A
FF
E8
17
F7
20
C3
9A
41
8B
44
1C
B2
4B
BC
E4
8A
A3
F5
42
BF
16
14
F3
03
E6
D6
E9
C4
DB
0A
0B
97
FD
06
FC
3F
1D
DA
F1
14
BA
4B
D0
9F
1F
12
FE
9E
D6
44
E0
31
8D
B7
C8
40
B1
BB
5D
A4
54
1C
C9
B5
ED
AC
B5
90
C5
20
AF
25
DD
26
A2
EF
4A
30
EE
AB
EB
41
A9
F7
A8
00
E7
02
26
FE
2C
01
59
B7
2D
89
1B
F5
45
E7
B3
B1
3D
A9
2D
0E
05
D4
FE
B0
24
B1
25
CE
A9
26
23
B2
EF
F8
05
A1
E2
F1
24
FA
5B
32
F5
22
46
BD
A8
F8
3C
A7
12
56
F5
88
41
EB
01
B6
DE
C7
EC
1E
96
21
EC
DA
30
DB
D7
56
40
1E
5D
C1
E9
8A
22
AD
E6
F3
C3
40
3C
E7
10
23
FB
E5
56
C7
0D
5D
24
02
16
EF
1D
23
C5
BC
CD
ED
B9
D2
13
FD
0B
B3
C3
05
AB
12
23
1A
19
5F
DC
AB
0C
D7
A1
02
01
E1
82
26
AE
19
11
A3
43
3C
B6
AC
EC
C7
D1
41
D5
2C
E3
CE
51
0C
0A
0D
C2
14
F2
ED
0D
BE
02
39
03
D4
C1
3A
D8
E0
C1
89
3C
B4
16
E3
3D
AC
2C
B6
1C
E3
A8
B0
FB
95
3B
E0
AA
A5
96
9F
A5
98
C8
01
2B
2C
CF
92
B7
07
28
A2
F1
FA
46
CB
E5
B6
A7
00
0D
E7
32
9C
33
98
BE
AC
23
ED
D3
04
B8
83
32
27
4E
2F
1F
E0
1D
5C
0C
15
06
CF
17
5B
5E
3D
D4
85
08
8F
3F
A8
D5
BA
90
AC
AC
E7
34
B4
11
B9
08
1D
D0
02
0A
2B
3F
28
29
EE
2A
85
23
21
BD
DE
14
91
A0
B5
A7
FA
E6
B2
2C
23
0E
B5
93
F4
D6
98
2C
09
0F
AC
AF
87
F8
A4
D5
0C
F9
C7
A1
B1
0F
3D
C6
3D
05
90
33
D7
40
EB
07
A6
98
B3
2C
C2
DC
30
28
F9
A5
D4
B4
AB
C9
32
DE
D6
E1
ED
EB
EF
C8
D1
5F
33
A6
36
A0
AC
AB
98
A2
FD
EA
CA
EC
05
BD
FC
D0
3A
E6
26
94
F6
D0
AF
B1
28
06
3C
D4
E4
5B
1B
13
17
C7
AE
D8
BA
D8
E5
01
12
DD
0B
85
BA
19
B1
49
E6
28
DF
8A
3E
9E
4C
8A
15
21
84
AF
54
F9
E0
FC
DD
E1
14
D5
30
D3
D5
B0
E1
00
FE
1A
C4
FF
ED
07
3F
43
B6
C3
85
32
F9
DF
C8
1D
A9
17
C2
3B
AB
C1
CC
AB
12
AA
ED
01
0F
86
C0
CD
A7
1D
A0
A8
C5
39
B6
2B
00
A1
86
B2
15
F2
30
F0
AB
52
53
E5
CE
5C
2A
16
16
05
C3
D9
8E
DC
E8
E8
2C
2E
08
B3
CF
1E
BA
0E
C1
1E
D0
02
0F
98
13
DF
36
11
DA
C6
86
DE
39
DF
10
F3
C5
B5
D1
F5
B9
38
44
C0
C4
4E
26
57
12
AB
A1
24
3F
C5
CA
3E
E9
4E
14
1E
A7
3D
38
53
EA
97
DD
00
32
21
8D
34
F3
A4
C7
DE
D5
F6
DB
A6
29
4B
D5
B6
AA
89
49
D5
27
A9
9C
39
2C
2F
8E
ED
17
3E
C2
50
31
06
A5
E9
17
A2
BE
8A
30
2E
11
B7
33
B5
A7
AE
1C
FF
C3
96
03
C9
A8
0D
EB
AD
BD
AA
03
E0
F5
05
0D
D4
D1
F9
54
8D
07
83
F7
35
A2
4A
14
2E
0A
04
C5
23
C3
A2
39
E6
D1
28
51
4C
05
AC
C0
36
FC
14
9A
FA
F4
85
00
8E
31
26
70
08
1A
2D
26
B1
F4
1B
2A
ED
3C
9B
A0
BC
B9
1E
2D
B2
AC
A0
1F
E3
24
20
88
F7
93
B4
4E
DC
34
02
9B
C7
91
18
BF
B8
5C
95
41
CD
B0
C3
DE
0C
8F
0D
25
24
F9
BE
31
16
C3
12
8C
FA
DE
3F
BB
0F
E2
29
8D
23
C7
46
88
AC
11
37
3B
F1
D1
3C
24
D1
FF
B8
28
41
FD
28
9E
DB
BC
4D
B7
A3
00
D3
C9
F3
CC
AF
20
D1
EB
15
D9
D1
49
C6
25
9A
37
B0
22
22
93
BF
AE
C3
C1
D9
1E
CE
15
E5
E0
18
C3
2A
45
CE
1F
F6
E8
A3
82
32
A2
5B
39
E9
90
BB
0B
9F
E4
24
89
5A
AD
0E
0B
59
87
F8
C6
A0
BD
D4
EB
36
B9
96
35
1C
29
DC
37
36
B2
A7
E5
B6
EB
2B
21
11
24
B4
39
F9
2F
24
3F
BF
F0
BA
9E
02
F6
01
89
A0
1A
AF
A3
E5
FE
D7
9D
A5
8A
AE
28
B1
8B
DD
27
D6
EF
57
B9
25
51
04
24
A0
D7
81
1F
54
0B
4E
EB
8E
23
3F
FC
84
96
EE
41
B4
DA
C5
A9
F8
31
0A
BE
8B
3E
DD
11
0E
42
DD
F2
AB
B6
12
31
1B
1A
08
0A
EF
BA
E8
EF
B4
2E
FD
FD
C2
40
30
3E
F9
88
31
DA
BA
1D
B7
05
EA
03
CD
97
58
95
9E
90
E3
2E
00
CD
D8
DC
33
2D
2F
DE
B9
42
FA
3A
4E
C0
1E
30
D7
A1
3D
13
4D
AA
36
E3
B0
37
22
2E
EA
42
27
B8
1B
33
CE
CA
B9
40
DC
A1
56
0F
12
E0
F0
45
A3
0B
B8
57
BE
04
5E
B6
AE
DA
D0
39
27
DB
FD
E0
1E
00
28
DE
EB
AF
C6
46
94
6A
E9
15
D9
EE
B8
B6
31
22
D6
E6
0E
BD
B8
B5
FF
E5
DA
FA
CA
A6
B6
96
17
DB
B3
19
DF
DC
CA
BC
DA
CD
D8
84
CE
D6
32
AC
14
D8
C0
53
BE
BE
59
B5
A9
E4
C5
E2
1C
99
E0
3E
19
A6
31
BA
A2
0D
3B
EB
88
0F
2C
C6
D2
04
E8
2B
C6
9D
2C
29
8A
BD
E4
2B
AD
59
10
D9
BF
91
A3
01
5A
22
A5
19
CD
CC
D2
55
04
C6
E0
F2
37
9B
B6
36
EA
88
EF
47
C7
C6
DD
98
EF
46
D6
C3
31
3E
06
CD
AE
BC
DE
C0
02
BC
3D
F2
E0
2C
D6
DB
D5
E2
E0
06
F7
B8
E2
42
FC
CA
E7
CC
CC
CC
4F
C4
43
DF
8F
CF
C8
AE
CF
D3
D5
C7
9E
A7
AF
31
E0
FE
C6
1C
DB
B5
AB
A5
82
C3
9C
28
24
D5
E7
54
01
E6
FB
FB
E7
B9
D7
D2
1B
A5
D7
25
27
15
0E
84
19
02
26
CD
58
4F
93
00
1E
2F
31
BD
D4
3C
52
BD
A7
B8
AD
EE
D2
2F
34
3C
FF
F7
B8
40
C4
37
B5
BB
FB
ED
17
CA
2E
DC
06
C5
EA
AF
2E
A6
2E
02
D9
4E
B6
8D
1F
1A
25
A9
58
16
28
1E
1C
FF
C4
5E
0A
AC
AD
30
3F
B1
DB
5F
41
1F
3A
07
C6
2A
DA
1D
1C
B8
2C
F0
2A
92
2F
B9
C9
C8
BC
E7
B8
35
EC
34
B3
D8
CC
D5
D3
D4
1E
2A
92
DC
ED
D8
F3
87
2D
E9
00
B7
4C
8F
FD
CB
A6
11
46
E4
3E
A0
A9
3C
A6
ED
0E
3E
FD
CD
02
B4
F2
B8
2B
D3
BF
E1
B3
AD
54
1F
AE
04
42
A2
54
08
C3
3E
4A
8A
BB
F9
CC
4C
BF
4B
03
3C
23
F8
BE
22
5E
06
FA
20
35
1A
81
D2
CF
D6
0E
2A
E7
86
DB
DB
9D
F5
B5
1A
F2
41
B6
0D
AB
3E
0E
E2
AC
B5
17
1C
58
4E
8E
0A
F7
E3
E0
85
D1
CD
FA
50
DD
E8
08
2F
01
D7
4C
A9
E0
93
B6
24
82
17
24
9A
E2
99
5C
A7
ED
0A
D0
28
89
1E
87
93
BC
31
D2
49
47
AC
AE
BB
ED
B7
40
F8
CA
30
E5
C6
F7
ED
DF
F4
50
40
18
F7
3A
B5
1A
99
DE
A0
85
9F
A8
07
F1
1D
06
A7
EB
D0
3C
D7
55
BA
FB
FC
F6
EC
D5
DA
8E
A5
07
38
CB
DB
5F
28
2F
F6
D9
E7
F0
DD
CC
89
EA
AF
A4
21
2C
CF
AE
FB
1A
95
98
27
0B
DF
E7
48
CF
9E
2F
9C
25
BB
15
58
DD
05
AD
C8
BF
A9
3C
A6
C4
C7
4D
86
50
FE
F5
96
ED
87
CB
B2
81
51
C4
A3
B7
D0
CC
AC
C0
8C
B1
1D
B6
D3
08
D6
39
8F
16
2E
1A
EF
CB
A6
0A
04
1F
0D
4B
23
F6
F5
FF
00
3B
F5
16
1C
11
C9
B2
22
5D
11
9D
82
26
5C
FA
3B
C4
DC
49
15
B3
1F
55
D5
F3
B5
3D
86
E3
9D
14
0D
10
D5
BA
3B
00
97
42
E1
FF
F2
99
F0
B4
C2
90
A2
35
8F
BB
35
F5
A6
06
BA
1B
07
D5
2E
A2
B3
21
1F
C0
F6
15
10
38
AA
1B
28
D3
56
90
C1
AE
C8
37
92
0C
01
23
E2
4F
B8
C3
E9
BF
E4
2B
A5
FF
AE
D2
07
9B
3D
35
3F
55
A9
AD
13
D7
A4
84
B5
EC
2A
CB
40
C7
C7
31
03
D8
14
33
23
E8
06
B4
12
CB
B5
82
B9
AB
B2
27
C4
B6
0F
04
B3
CE
0C
F6
19
D2
BA
E4
C7
47
3E
04
57
C5
F1
D9
AF
D1
E8
FE
9F
40
A0
8A
35
2E
F8
C9
AA
3E
89
1E
E3
C8
CC
1B
EA
34
B2
E6
C0
07
83
ED
15
14
29
45
A0
38
E7
59
24
19
88
0D
2E
04
1A
24
F5
F4
3E
14
DE
DE
EE
03
FE
28
DB
C4
28
E4
06
5D
40
C5
2B
4B
E7
3F
01
0A
9C
C4
84
EB
41
02
CC
F4
F3
C4
37
B2
0C
4A
30
89
DA
0F
5E
C7
FA
43
1E
49
03
EF
E4
F3
C5
35
C4
51
A9
AC
1A
1F
0B
81
0A
B8
F7
2B
40
C4
9F
D8
C4
A1
EC
AD
4B
D6
34
FC
1A
B4
F5
A0
CE
A5
FF
30
2D
07
E2
F0
C5
92
F0
CD
5C
03
BD
5D
21
1A
92
37
4F
1D
DE
9E
32
EC
89
03
C4
D3
2A
D0
25
1D
9F
CC
23
BE
AB
9F
E1
CF
F0
3A
A4
9B
B2
C9
23
B4
BC
D4
DD
1D
2B
38
42
92
38
2E
8A
39
06
D2
18
CE
DF
B1
97
C4
3D
E3
D3
F3
E0
D4
48
2A
CF
A1
9D
E2
87
39
5F
33
00
EF
CB
D3
39
BA
03
B4
CB
B2
0D
A1
38
D2
1F
F9
C5
5F
84
EF
34
01
49
2B
F1
49
3F
5C
DF
CA
BA
F3
C8
F3
3C
FA
CB
5B
E8
B3
4A
D9
19
BE
8B
13
F4
25
29
F2
2A
F2
FD
24
D4
B2
BC
F7
CE
EB
FB
C2
0A
AB
12
21
AE
BC
1D
D1
85
48
F8
D3
97
A6
94
BA
9D
0D
B2
D3
07
C6
2C
00
C9
A2
8C
FC
07
23
85
20
E3
B9
34
91
FD
E4
A6
B6
38
CE
48
2B
10
A9
E1
C4
8C
16
A2
0A
F8
95
38
A6
B9
BE
A9
A9
EC
25
1D
3E
02
AD
EC
AE
12
2A
2D
2D
F8
23
AE
D8
FB
54
AE
A7
17
F2
BF
CE
AA
A4
12
3D
F8
A5
08
24
BC
FD
D4
07
2E
0A
9A
37
45
3B
27
BA
28
58
DE
DC
1A
F3
88
DB
EB
CD
F0
20
D3
D9
16
10
0F
E3
9F
31
41
40
18
1A
14
DC
B0
CB
EE
9D
F2
E5
0D
F6
F1
4E
F6
AF
8F
1B
1A
B8
15
42
01
30
4D
02
1C
1E
F8
E9
28
D2
CF
20
D1
F5
C1
18
DA
1F
E2
1E
13
4A
21
12
0A
06
BF
1C
F6
E8
04
BD
F6
14
18
A3
15
38
25
1A
00
2D
B4
BF
D6
BE
BA
A5
2E
FB
35
45
2E
D2
55
AE
37
DA
30
B1
9C
DF
0C
17
28
F6
18
33
A3
90
41
1B
08
4C
F7
22
E8
30
1F
F5
F4
9E
3A
23
BA
AC
9E
B3
0C
F6
C2
2B
A6
5E
0A
8C
BE
96
4B
F9
03
DD
AC
32
40
E0
0C
C1
38
09
F4
AA
0F
A5
32
5E
C8
30
50
AC
1D
04
E4
16
8F
5E
D5
35
27
CC
AD
BD
F1
87
40
B7
A2
3E
3B
E5
CE
A7
30
B3
EA
C7
F3
F4
FB
38
A5
FA
95
19
82
02
A2
32
25
E0
EF
9D
E2
F9
CF
CF
0A
A3
E3
24
EA
C7
BA
B2
33
E9
BB
2D
CA
07
FB
B6
A7
BB
0C
0F
92
0D
24
22
8E
D5
36
18
AB
89
16
12
01
C0
0A
2C
B7
FE
CF
AC
07
BE
1D
2F
31
41
1E
4C
18
D9
18
E3
FB
83
C7
34
39
E9
17
34
CD
97
B5
11
18
2D
85
C0
06
F4
B9
97
84
23
FC
32
5B
DB
AA
3C
B3
E7
06
37
95
D2
C9
F6
D7
DA
18
FB
21
98
42
19
99
0C
2A
3B
F5
49
E9
17
CB
D8
EE
2B
39
B9
18
DD
EA
EE
08
E2
41
8E
08
38
E0
9A
97
FB
C7
B5
25
8B
BD
4D
00
F5
3F
A4
10
82
9B
1F
C4
B4
BC
3A
1C
D8
E1
EA
EE
F0
11
D7
1F
A5
C6
A4
E4
10
F6
8E
0C
E2
10
C5
FD
B2
2B
58
C6
86
E4
BE
D2
13
A7
CB
0F
1D
97
0F
05
FA
23
F9
A2
D8
82
C4
8F
97
23
0B
0F
EA
30
27
30
E0
01
14
C6
04
EE
96
40
01
CE
0D
E1
1E
19
DC
2C
32
06
08
9C
C1
35
E9
9B
41
E3
10
B6
F3
D4
40
CE
30
E3
2C
AA
BD
EB
DD
BA
9D
0C
F0
3D
BA
30
B9
94
3A
EB
DC
3C
49
FE
00
BC
2A
19
9A
11
3E
C2
ED
CC
33
9E
21
27
3D
CE
BA
E0
D3
B7
DE
F5
E7
C7
40
2E
BD
F9
A0
FA
B1
FC
C9
37
07
14
92
4E
29
87
F2
11
56
F6
FA
2D
8E
90
9C
C8
E4
37
E5
CF
31
BD
19
22
37
20
FD
8E
21
98
1B
AE
04
22
82
EE
83
92
CF
E4
FB
D7
1B
39
B1
12
C4
CE
3A
F3
3B
B4
F8
CD
0B
97
C2
BE
B1
DB
B3
E7
02
BC
3B
3B
EA
D6
E2
A3
D5
A1
B8
27
53
E0
2F
41
19
03
0B
A8
BE
C2
CE
20
4F
24
DA
14
C5
9B
1E
BC
33
A8
13
09
1B
17
25
AA
30
FF
E5
C5
35
FB
1D
2F
99
57
2A
A9
D6
2D
5F
86
49
CB
43
CB
1A
F7
B8
97
92
C4
C0
38
AA
E2
3B
C5
FB
8E
E6
88
F2
0E
A9
F6
0B
A3
BD
29
93
0D
F8
FE
F7
1A
3A
83
FC
D7
E6
0A
20
E7
DB
0C
FD
E0
2B
12
E0
22
27
C6
CD
E2
E4
30
36
15
06
DE
B5
29
A9
8C
3B
FF
2B
8A
E4
BF
B0
D4
09
B1
EC
29
9E
FA
85
A5
38
FD
5B
96
FA
10
DD
A2
33
26
BA
E4
DD
8A
48
22
AB
C5
54
10
C4
3A
05
0F
2A
8F
0D
0D
13
16
C0
15
A0
0D
26
8F
42
C3
3C
A4
E8
50
DD
0D
D1
2C
49
F5
9A
94
44
F3
98
DA
CB
05
9E
16
93
5D
D8
4E
02
BA
F4
8B
1C
34
15
40
D4
F1
3D
52
01
97
8D
2F
AC
FD
28
1D
F2
F3
C5
AA
48
94
A3
41
DE
0E
0E
38
3E
DF
4F
89
49
90
27
E2
B9
3D
87
0C
2E
98
2F
DC
AF
CF
07
2B
FA
8E
8E
E4
40
F3
3B
FF
92
E5
AD
14
A3
36
4D
32
B1
C8
A6
40
91
21
11
29
AD
3F
12
DC
B7
0B
54
DA
E9
3C
8B
07
4C
CD
FA
CD
B9
FF
C3
A4
D7
EB
50
A6
E2
B9
17
52
D3
93
B5
55
07
FA
FD
0D
E0
FC
AF
21
F4
18
C3
96
C1
CA
18
AC
B1
1E
CA
C5
14
FD
B3
09
29
38
A5
E7
26
03
D9
38
D3
0A
41
C4
3D
DD
C8
A5
A5
F3
B5
27
E3
99
F6
9C
24
59
B5
18
F0
2F
02
DF
A1
29
02
D1
14
16
AF
B0
E1
1B
BC
EC
CC
11
28
EC
33
22
AA
E1
DE
D5
B3
B1
03
A7
9E
E8
BA
E0
A0
EC
1E
38
16
A4
96
0C
E9
1D
BC
03
D2
29
10
E1
F0
33
27
E0
D2
E7
0C
35
35
FD
BF
B2
CC
38
21
E1
B5
B2
CA
C0
2D
AB
A4
96
15
5C
23
AA
E6
11
18
A1
A1
12
EE
8B
EB
86
04
C5
AB
20
14
BC
A8
E2
F1
B3
4A
9A
3C
1D
24
BF
F6
F9
B3
A0
2D
A5
C5
BD
2C
16
3A
FB
0D
E6
ED
89
5A
C2
3A
C5
B1
A6
E1
43
3D
2D
40
E8
A0
EA
A7
2A
F1
8D
06
F9
09
13
23
0E
D3
0A
F3
23
17
E3
88
C8
07
1A
F2
A4
2B
45
D5
E3
BA
D1
58
09
FF
9D
54
F6
E1
C7
18
2D
02
B7
A0
AF
0C
A0
49
9A
B7
D9
B7
E8
C3
9D
07
D0
35
45
92
C8
BC
3D
AB
BC
05
03
C5
1F
0E
FA
12
B7
08
CA
22
9B
49
88
4C
1D
4B
AF
AD
E4
16
BC
01
2E
AD
0C
E7
30
87
A5
C5
F6
37
CC
FE
0A
B0
14
17
AC
1C
E5
07
2D
2D
2E
A3
AD
3A
DF
83
B2
E0
87
EA
8E
8B
2E
DC
C6
30
FB
09
A4
45
EE
27
E9
0B
DE
C0
B4
3B
BC
DE
92
43
87
F0
31
23
E5
B8
93
C8
AD
11
AC
E0
D9
95
27
AB
04
AA
82
1C
8C
A7
38
3F
A8
3C
AA
EE
29
2B
BF
41
A1
EE
0A
3A
2B
25
86
00
D0
AB
95
21
E1
03
16
D5
C8
FD
9C
19
EB
EE
03
FB
39
27
28
39
FD
9E
F5
BC
9B
3D
1E
45
1D
A8
E5
D4
1B
D6
E6
3A
2B
89
D8
32
8C
28
27
55
84
50
B3
D0
EC
0C
1B
36
D6
11
E2
A6
0C
2A
AC
C7
18
BE
DA
19
AE
3A
3F
83
C7
F1
E3
F3
FB
B8
F4
AA
B2
3A
27
1D
8F
0D
FD
F8
AE
0D
CB
FF
B3
10
DD
56
BA
9A
F2
4E
34
1A
FA
1B
44
99
56
D4
BE
32
D6
59
96
ED
BA
2F
A3
0A
4A
27
E2
A0
A0
1E
1D
8C
A6
1E
8B
00
D8
54
DD
1B
BF
FF
2E
29
FE
CD
13
02
8F
AC
94
C2
86
CC
0E
CF
BE
C7
C8
F2
C4
FF
87
F0
13
4A
15
85
BE
B5
01
12
2E
EA
FD
B4
D8
FD
22
A9
2E
07
BE
51
D3
E1
33
E3
30
A1
18
A9
BC
AC
03
85
3D
AA
18
EA
CC
10
A1
A5
CB
40
EC
14
CA
8F
FB
B0
27
01
05
DC
AD
18
9B
A0
05
37
BC
C7
D3
41
2B
11
B4
56
DF
89
C2
FB
E2
29
A7
A2
0E
02
08
F6
19
0D
85
E4
42
3E
2A
97
97
A3
A2
95
AF
90
DD
F3
15
2F
D2
B7
E1
E4
E4
16
B6
17
F5
82
1F
F7
B0
3E
DD
38
C5
07
0B
D5
C3
28
EA
37
B4
0B
E9
B6
A0
DF
85
27
D4
ED
0A
C5
B5
33
1C
FB
F0
9B
06
E0
DA
E3
34
D0
1A
5C
DE
4C
0A
A2
BB
1B
CC
C8
A8
F8
A7
F0
FC
50
E4
3E
2F
37
37
FB
E0
FC
88
FA
25
D7
A9
38
FC
50
AE
27
3C
BC
A2
81
D8
E4
0B
41
33
A1
F7
D3
EE
A1
F8
46
FF
0A
8D
5F
82
05
D6
F6
16
86
18
F9
D2
1F
CE
BF
C9
0D
E5
D6
D2
86
5E
F4
E3
07
3E
1A
B3
FC
F0
5B
99
1F
CE
B7
11
04
9E
9E
FB
9C
5A
1A
C7
EB
F8
B1
23
CD
2F
28
2A
88
AB
35
33
10
15
51
40
EE
AC
E5
EC
A7
22
27
AB
D5
9A
31
4C
E8
CE
B3
31
C0
FB
4C
31
F2
B0
99
0E
99
F6
C4
D4
B7
CF
44
26
D4
DE
39
31
A7
10
F7
F3
31
A7
B7
B9
DB
F2
24
21
EE
ED
12
2C
BB
2B
CA
E5
FA
E3
D5
1A
96
04
03
F7
A7
8A
5D
39
EF
10
1F
89
92
1D
96
D7
C8
F5
0A
A6
0D
28
26
EB
B8
3D
AF
82
97
52
BA
AB
DA
36
32
FD
E2
13
B4
32
F5
D3
4B
1F
F5
27
AB
B6
3D
2A
B8
18
09
D4
29
22
E7
D2
C8
FD
3E
36
CC
EB
27
96
B3
EC
F7
F2
18
B0
C0
AF
A0
38
E4
31
CC
FE
C9
1D
90
40
22
B1
CB
F6
A5
16
2D
96
30
BA
CF
C5
F9
2C
A9
0B
D0
01
20
DF
B0
0F
BE
86
9C
FC
EA
F6
09
15
DD
C4
54
BA
C4
26
08
AF
89
95
01
2B
26
01
08
F7
C7
21
E3
C3
30
F6
CA
3E
1F
B9
3F
DC
A4
2C
CA
B1
10
9A
E6
DC
FE
FB
42
43
DC
82
E1
19
12
36
8E
F6
17
25
23
10
2D
16
CC
B3
14
1A
D6
87
21
3D
DA
0F
3E
CE
1B
E2
1B
20
4B
60
DD
E8
3D
3B
A9
37
84
E7
0E
CF
2D
27
19
FF
92
1E
03
32
3F
C4
9A
F7
D3
1E
32
FE
55
13
DA
EC
38
15
9B
BC
14
C0
39
E2
3D
E7
CF
D2
B0
A4
E9
F1
CC
FA
20
F3
A2
06
2C
A0
31
DA
AF
27
AA
2E
B1
27
5F
16
40
C4
D4
2B
F6
2E
84
D5
58
FA
06
FB
97
F8
02
03
EB
1E
B5
95
97
E3
A8
EF
FB
8D
E0
1D
F5
3B
BB
FE
3F
AD
A8
EE
9E
0F
C9
BD
57
EE
00
FB
A3
38
C0
A0
53
E4
E0
BC
AB
CD
DB
57
C2
1A
06
9E
AE
8F
5E
E9
22
83
D2
26
1C
FF
A5
9C
A5
29
DF
A3
56
9D
05
A3
E2
83
F2
36
28
25
CF
43
01
E4
E1
A9
5B
8C
E5
2D
17
0B
1B
26
34
0A
92
26
17
AD
FA
89
D1
EE
1E
AD
4A
D5
D5
0D
A0
39
86
AF
F6
41
AE
2E
43
F4
0A
05
8A
17
EB
42
A9
87
C0
88
5B
B5
CF
97
C8
E4
B5
D8
E5
FC
04
95
96
41
E3
E7
A9
AE
3B
90
45
9E
54
F0
8B
29
8D
F5
C7
40
CB
1E
4F
D4
DA
B7
A5
A9
D4
39
57
E8
D8
C6
D1
1B
3F
2C
18
C8
E2
C3
3D
8F
4D
A5
8A
34
A5
C3
93
0B
E0
2B
A9
0E
28
95
5D
E1
8A
9C
06
DB
D6
36
B4
49
DF
A8
81
F2
DB
F1
DD
FE
34
C1
F1
D9
CF
0C
2B
A2
AB
18
33
38
EA
AA
C7
90
CF
AD
A2
DF
E2
3E
8A
E3
A6
2A
35
AD
5A
06
05
C9
E8
14
E9
D2
E4
20
D7
2D
07
2B
BC
3C
F8
3F
5F
82
E9
B2
E6
D6
A4
CE
F4
24
09
3E
89
90
F9
00
F3
23
EB
B6
CE
F0
14
F4
26
D3
31
0E
2A
C1
49
03
F1
88
B8
38
4B
88
52
B0
92
A1
98
BC
C5
A6
2F
83
D4
2C
1D
B9
82
8B
06
5D
B2
D1
29
98
F4
8F
A9
95
B5
A8
EA
DD
DD
E2
B6
10
84
1E
3C
1E
EC
9D
B8
C2
52
D0
C2
FE
C0
2B
DC
DF
40
CA
9A
B9
EA
C9
BC
98
AF
9A
11
2F
AC
D6
F4
D8
FE
DC
8D
08
1D
04
00
EA
F5
C3
45
DE
D0
B1
F8
FC
08
C5
87
A1
56
AD
09
B8
D6
EB
AC
D8
34
C4
41
E1
88
A1
20
FD
D0
DF
0B
D1
21
D9
DE
46
D2
3D
2B
20
92
3A
32
27
11
00
A7
2F
5F
F8
08
38
CD
BE
40
09
D3
34
1B
E2
99
42
A2
C7
A0
32
37
A1
F5
B5
33
AB
23
27
05
24
57
B1
CD
A3
0B
E5
04
A0
45
2B
1C
41
EC
56
1C
16
D0
02
2F
02
50
33
2A
A3
B5
82
EC
A6
CE
23
96
C9
38
11
5A
F1
C0
3A
89
AF
41
AD
E5
F2
2B
B4
B0
AF
D6
C5
36
3A
DB
C2
DD
F8
1D
96
06
DC
26
FE
93
14
BB
EE
39
C5
D1
0C
EB
C1
2D
C5
00
2B
3C
D9
10
D3
B3
3B
C5
E3
41
C6
A0
CD
01
C0
AE
1F
3F
C5
8D
3F
B8
30
DC
B8
19
9A
1B
FD
FD
28
F3
A2
96
CA
C0
4D
0D
98
49
87
4E
FD
B0
44
E2
1D
C8
DE
CC
AC
A6
BB
4A
2F
BB
30
23
32
3E
29
58
04
B3
92
1A
F1
01
FA
19
B1
AF
D7
58
CF
0E
E7
82
25
37
4A
8F
E8
FB
93
06
FA
15
25
B8
E4
BA
0A
BA
F8
21
26
02
B5
D1
30
C7
EB
B5
E3
CB
82
BB
17
FE
01
32
F2
CA
A3
CB
E1
39
88
E6
91
0F
40
F7
10
8E
D4
C0
0A
29
BA
9E
C3
20
D7
06
0C
07
A4
DE
08
BC
EC
28
A5
08
0F
AC
8C
E7
33
4C
26
A4
89
CE
33
2E
94
B0
EB
DD
AD
30
FA
1C
3E
1F
D8
1B
F9
D2
5F
E2
DE
A1
29
EB
E5
17
0B
57
C3
02
17
DC
10
04
23
F2
F2
D7
2F
04
F9
FC
E9
F1
1B
A4
07
A1
C2
5B
FC
0E
F3
2A
B7
83
FC
8C
18
D9
8E
56
E1
46
D7
A5
AC
B8
94
D6
36
23
F9
8C
1B
2F
C3
A4
B5
A8
A5
3A
60
04
90
FB
11
30
88
26
FD
2F
DC
C6
25
C8
87
A0
19
CE
F4
A9
A1
DA
E9
17
2D
02
0B
29
D5
B3
B6
D4
38
83
34
0D
FA
19
40
5A
0E
BE
3A
3C
28
FB
32
39
40
BC
29
55
AC
C2
29
12
A8
B8
1E
28
C1
D3
21
B4
08
99
9C
B1
E3
39
F0
95
E1
BD
C3
AD
0D
F8
88
19
2D
FF
8C
45
20
AB
EE
B5
B2
00
F4
12
2C
22
40
51
2A
F3
AB
89
B7
2B
F5
A4
97
E9
BA
B7
2C
17
F0
00
07
ED
B3
0E
D7
26
B4
B1
4C
8B
05
BE
13
57
CA
44
5F
8B
8C
FC
4A
B1
5D
44
F7
4C
A4
FA
B9
03
0F
E5
14
A8
33
A1
8A
E4
32
E9
FB
99
88
49
AE
54
D0
FB
F1
8A
CF
1F
2A
23
9A
21
15
F6
AE
0A
AC
CC
D6
38
86
1C
8C
CA
CB
0E
42
9D
1C
D1
E8
D1
C7
B4
E5
56
FD
3C
DA
05
53
D6
D3
27
1B
34
E5
E8
2A
EA
E6
BA
A5
56
33
F8
0E
26
43
FE
E0
DF
A9
B0
34
F8
F7
37
AC
B2
AB
1E
0A
39
B4
2F
B4
02
54
B2
84
D6
3D
9B
A9
0E
3E
F3
1B
BB
44
EC
E3
2C
A6
A8
E1
A8
95
29
2B
1F
F0
CC
F6
82
A1
F8
3B
3E
22
C6
FC
28
42
DE
B6
57
B3
47
13
20
19
F9
05
EA
29
C7
21
28
8B
0E
37
CD
F4
1C
47
C6
09
8F
1F
59
22
08
1D
2D
1E
AA
B0
29
25
D8
DE
CA
5C
38
C6
0E
06
30
83
5F
1B
B4
15
23
E9
CE
FA
B7
9F
13
2C
BA
FE
60
C5
36
F0
CD
34
33
29
ED
AA
29
28
DD
19
EE
03
41
B4
AA
13
31
ED
DE
2E
86
A2
86
A8
35
3D
5D
28
CC
0E
50
A8
AF
FF
D2
2A
41
2F
1E
44
9A
FC
8F
FA
C5
B3
AB
D7
4B
0B
EA
F4
A3
C9
C6
B1
F4
09
C9
FF
D4
D4
CC
E6
89
B7
5B
9A
E3
A9
AC
D9
D7
B7
14
A0
25
2A
DB
99
01
FA
CF
AF
9B
59
8C
38
1A
B1
34
C6
46
EB
40
F8
E9
87
2C
C8
0F
CA
9B
F7
AE
EE
AC
0C
E5
98
E0
1D
AE
33
40
C4
C2
EB
18
16
BD
30
B7
23
EF
90
3C
29
DA
BA
40
1C
94
AF
AD
D1
8F
A9
C8
05
07
AD
2F
03
02
21
E6
93
96
21
07
BD
B7
9E
F1
83
27
AF
F5
1E
E3
E8
23
FD
0A
C7
BE
3D
D0
57
07
AD
07
1C
FB
CD
3E
F6
B4
BC
2B
0F
F2
C5
EE
CD
21
1E
C1
05
CE
CB
BF
3C
3F
AB
C4
F1
0E
23
8C
4F
3E
DB
F8
EE
BE
08
3F
44
FC
04
BF
E4
C4
11
AA
CC
17
30
3E
AD
2E
8A
3C
8F
E0
B7
F3
AB
D2
28
D7
41
20
37
09
03
1C
8A
FF
CF
0D
28
EF
3A
33
8B
3C
8D
D9
56
DD
0F
2C
F9
BB
06
E3
84
0F
FE
E0
1D
99
36
9A
8D
20
30
AC
BB
3A
01
15
30
09
BF
34
37
1D
CB
CD
46
D9
DF
07
AF
D4
FB
B5
84
CA
07
CD
E4
99
DE
41
BA
1B
C1
39
EB
3D
CE
AB
8D
F2
C0
8F
C9
51
FF
5B
2C
E7
AA
A5
07
C1
F8
24
0F
AD
2A
D6
DF
26
2D
30
26
D1
D6
59
24
E4
32
85
27
21
FF
12
10
38
F7
1C
1F
5F
35
E3
B6
D1
00
FC
B7
AD
9E
E8
D8
38
A5
30
4B
B1
CD
C9
13
13
F8
3C
16
2D
14
3A
E5
F0
8A
BF
C6
DF
3A
2E
0D
40
DC
F6
3A
15
98
F9
B7
89
FD
20
39
D4
B7
C7
39
24
5F
F8
82
93
C2
D6
FF
28
F8
A9
E1
A1
03
4D
9F
DB
C9
D1
CD
AB
BA
F3
B5
B3
EB
CC
BC
49
28
A6
94
A3
30
BF
AB
A7
C3
8E
B9
FE
1D
36
BC
C1
AD
CA
2C
81
EA
C9
92
0E
E5
11
14
EB
16
3C
3A
53
4A
A0
20
EE
E5
B4
2C
2C
56
04
AE
21
37
03
24
37
D6
AD
E3
D5
82
AB
34
0F
BD
A7
DF
DF
F0
27
B5
E9
1C
46
2C
25
48
E0
84
CA
A2
01
23
FD
E1
30
5D
F8
AF
BC
23
88
C8
D8
C3
0C
B2
E5
FD
96
FA
DA
A4
49
E7
2D
E8
AA
1D
00
C9
F3
B7
2C
E1
56
18
F5
DC
CB
A5
A8
93
88
8A
B9
DB
00
35
95
24
AE
5A
AD
31
27
A3
F3
3B
D0
1C
99
A7
F2
24
DF
05
C1
24
B7
3E
16
97
5D
85
3E
D5
29
A3
07
B8
0E
14
CD
00
FE
42
AD
B2
5B
E8
CB
C6
9A
97
BC
C3
AD
C8
A2
91
4E
C4
60
A4
FF
ED
33
34
B6
30
BF
90
38
22
EF
5E
0B
DB
DF
24
EB
B0
24
4F
0E
EB
08
DE
86
A2
33
36
BC
C0
E5
86
D7
8F
B4
CC
1E
E0
C2
FD
1E
FA
21
23
E9
EF
54
93
B1
82
04
C8
19
1D
C0
3A
AC
18
AA
07
1D
3B
C6
FB
B0
37
85
FF
C2
FB
0D
28
FD
46
04
A9
F9
A7
5F
E1
55
A7
DF
F2
34
D3
DF
A8
A9
8B
00
D5
5A
12
AB
17
AB
ED
13
8E
C3
B8
08
40
19
13
85
0C
C8
16
1C
07
DF
AE
BF
49
2D
3E
DF
5A
10
EC
38
E7
0B
27
14
11
C5
DA
02
9D
B4
10
29
2F
28
A1
DF
07
37
26
F8
23
41
92
0A
B4
36
33
AD
F5
EA
09
2A
D7
0D
EA
53
25
2E
8E
E7
8D
32
B6
55
1A
F0
41
31
22
19
30
A1
AC
FC
CF
05
E4
C0
25
B4
F4
BF
A7
38
DE
53
EB
D2
D4
C7
BA
10
9C
02
85
0B
A9
24
50
2F
26
DB
DC
1F
DB
16
E1
0D
2C
C7
83
A9
24
C3
C6
A1
B8
C3
4D
A2
3C
D8
14
33
06
56
8A
CE
9E
AE
2C
D0
08
C9
30
BB
92
F1
D3
09
A8
9A
DB
F2
4E
CC
18
E5
39
45
90
F0
B1
B4
9D
01
87
0A
93
2B
08
E3
54
DE
5E
9F
AA
21
F2
58
D7
31
A3
C8
D2
EA
CB
2D
19
29
ED
08
B0
36
BD
16
D6
BD
E4
CC
BC
56
1C
9E
40
23
16
F9
0F
10
0F
0B
95
B6
21
E7
A9
0B
B5
40
AE
AB
40
F9
03
E1
B7
CD
EB
9E
29
32
BB
22
01
9E
54
27
E6
E4
EC
0D
E9
C5
2E
03
51
00
2B
B9
35
AC
A8
E7
A3
1C
A2
04
8D
25
2B
A9
AD
00
F1
19
82
E2
04
D9
21
3F
1F
B6
3A
37
E3
C4
DD
99
DA
BA
0C
07
FB
1B
3B
FD
41
28
A3
A2
AC
0E
2F
A0
3A
CC
08
18
4E
34
C3
21
2E
36
F3
CF
B3
16
28
B6
17
E8
1B
C0
DB
C9
0D
BB
E7
F7
95
F5
3A
35
0A
2D
C6
CE
12
94
F3
8F
DD
B0
96
15
0E
53
FE
A4
B7
9B
0C
02
2F
1B
08
40
11
5D
52
E9
97
1B
B3
C6
93
4F
DB
94
BB
F8
CB
1F
5A
9E
8B
C6
F1
D7
21
B9
2E
21
D5
14
04
3D
8B
C6
07
C8
89
03
1B
34
8F
AA
99
49
E4
DB
FE
92
42
AB
2C
90
94
39
17
32
F3
07
10
2D
C1
B4
BA
9E
9A
E8
9D
EF
B3
D1
2A
02
CD
25
D8
BE
BD
D9
0B
94
B3
C9
E3
E3
F1
C2
B1
DD
F2
D5
A0
1B
FD
01
0A
38
0A
AA
E9
2C
C8
55
D0
B7
C3
1F
E1
57
B7
11
B0
9B
46
8E
B5
EA
85
A8
C6
F4
12
39
B5
3E
25
A8
38
0E
EC
21
E4
2D
F9
E7
0F
1C
ED
D1
29
9A
32
B9
AD
B2
CD
CB
39
0D
B6
B4
B0
BC
B7
FB
B1
93
07
D1
1E
FC
B2
29
30
49
0F
18
A1
E2
F0
DF
8B
46
FE
1F
AA
28
FD
1E
2E
36
8F
D5
AE
5F
B5
AF
08
98
D6
3F
54
EF
CE
8C
83
1B
AB
09
EF
5E
FB
2B
F6
C2
AD
E5
BA
CE
55
8B
A0
01
C7
5D
96
A8
F1
E9
0A
A8
E9
A0
0F
D4
89
AC
BD
DF
1A
30
2F
19
E7
C3
B6
28
17
EB
F4
AC
3D
2B
C6
38
11
51
B8
F3
CA
FA
E0
38
88
C4
B0
BD
D6
F4
8E
27
15
54
35
33
0C
E8
A7
38
C9
3C
24
0D
A2
F2
CE
A5
40
A3
9F
C4
8C
25
01
2B
95
2C
15
BB
92
AF
3A
9F
BE
D0
C2
AC
25
AA
DB
CD
EB
5A
22
17
14
DA
1F
42
E2
AE
9D
53
CB
F7
AC
2B
A2
88
53
A6
C1
B4
B8
F7
30
AE
8F
D0
CE
B1
09
C9
E9
F1
FF
CE
F7
AC
60
BB
8B
50
15
E9
14
5B
30
86
EF
1C
D3
3B
14
2F
2B
A5
E7
BB
E0
39
3E
C0
AC
39
8A
06
09
0D
3C
29
53
02
DB
BF
25
C3
BD
17
BB
04
B4
EF
C1
9A
25
A5
8D
F6
E6
59
0F
EA
C1
27
CF
BF
88
EB
C2
C9
B2
DD
57
F5
98
51
3F
A1
91
C5
F9
26
0A
92
F1
C3
D1
E5
B2
E7
AC
35
24
CF
03
CA
81
05
3D
A2
28
41
ED
2A
21
AE
D9
47
18
60
39
D9
CB
9B
8F
FB
A4
27
04
17
DA
A4
86
EE
08
1D
1E
3A
1F
47
C8
4B
B5
A7
0B
FF
24
87
9F
D1
26
54
94
19
18
B1
31
13
BF
29
B1
A9
FE
F8
2F
5A
D7
13
97
A5
F9
CD
8D
31
15
F1
FA
CB
BB
2D
F9
D5
AF
36
B4
24
DC
EA
83
8B
04
0A
B9
EA
FA
21
EB
27
EE
29
24
24
FA
D4
18
5C
CF
DC
24
F0
5A
A8
82
D6
2A
EC
0F
2C
37
82
8A
D7
F5
B2
BD
5B
09
5C
25
1F
E2
BF
09
A0
D8
46
2D
BF
1B
BE
BB
A9
EC
1D
37
4E
0C
46
83
B2
15
BB
DE
3B
C9
0D
FE
F5
15
A8
15
4D
B3
43
A1
09
34
19
16
F2
D9
3A
2A
9C
0C
E1
1A
ED
1D
41
AF
4B
12
3E
C2
B2
AC
DD
3B
E1
A8
A1
17
B1
E8
20
CB
09
39
12
14
4C
84
21
B3
29
47
92
3A
B7
DA
D5
0F
F5
B5
2A
B2
98
09
9D
BA
E2
A1
E1
39
BC
F3
15
38
FB
E9
A6
8F
30
42
34
36
DE
BA
CA
2C
CE
3E
29
E1
26
EF
D8
08
BF
4C
37
20
01
8B
3A
F8
25
FA
29
2C
BE
95
D6
3E
B2
AC
E7
F3
89
ED
9F
F3
2A
0E
09
0A
B8
17
AF
B0
BE
60
1F
EE
CD
C3
C8
EA
FA
97
B5
C2
EC
BD
0A
8A
A5
88
BA
A1
AF
B4
E3
32
2E
F1
19
D0
4F
1D
D3
35
ED
E1
C5
B9
B5
14
D2
4A
D7
E9
0C
D5
13
F9
B4
9F
07
2D
09
02
DD
A4
BE
37
2C
87
E2
00
0B
5F
94
92
0E
06
EE
0D
C9
A2
53
C9
51
C7
26
CC
A7
F2
00
C6
01
39
F6
40
B2
2C
21
DA
3C
07
D2
B0
07
A0
C4
E3
C6
DE
3D
D0
EA
A2
29
AD
F3
03
E9
24
1E
02
C1
16
42
AE
8B
C0
E0
C1
B1
9C
FA
C9
B3
34
0D
A2
FC
DE
D3
1D
FD
FA
CF
84
09
4F
E4
D2
C5
C9
88
38
DA
1B
04
B8
BF
D1
EF
4A
CB
34
11
E0
AD
DE
00
04
B4
A3
15
2C
27
0C
C8
D7
A3
D2
07
F7
0D
CC
C2
BB
24
CC
16
F3
3D
BA
FA
BC
18
D0
A6
28
48
42
46
F4
3C
34
D6
39
F2
1C
1D
D0
CE
F5
EA
BB
B4
D4
DA
E0
B6
DB
E6
DF
E8
AD
A1
01
16
3C
EB
B5
A6
25
52
15
94
0B
82
D5
14
B4
0B
A2
B3
A4
5B
A4
CD
F6
83
07
42
DB
A0
C0
E6
53
05
BD
89
AC
C3
82
5A
1C
13
49
C4
D2
F7
DD
BA
22
FD
DE
40
B5
50
85
C9
98
13
15
EA
2C
DF
E2
3A
D1
2A
BC
12
39
DC
5D
C0
41
3E
A8
E4
A1
C1
23
3F
87
E5
39
EB
0C
13
E8
05
3D
A7
D4
CC
B6
2D
8E
91
F1
AB
25
F0
0E
5A
C2
12
1D
24
D3
AE
1C
94
F2
AC
B0
EA
34
F7
D1
C7
AD
B3
BA
31
EA
E0
86
41
AD
83
DE
DE
F9
F3
82
E8
CE
24
99
09
A8
F5
02
BE
2E
83
94
2B
D8
A3
0B
E3
24
E4
18
0B
E3
E0
86
A8
FF
2C
AF
09
3F
2A
36
21
E0
3A
FC
31
CA
A8
02
ED
13
ED
16
2D
A0
F3
EA
FE
AD
A5
C7
29
B5
18
E9
FA
C9
DD
32
F0
F5
3D
3D
AF
05
1C
AB
36
E7
DC
FF
E4
C9
EA
0E
AD
B3
A1
2A
28
8A
BB
D2
CA
A9
94
D3
9E
BB
16
25
0B
40
23
94
FB
05
BB
97
5E
CE
8C
83
33
BD
A0
FD
2F
41
DD
E6
8A
09
C0
CD
27
FA
D5
32
D4
DF
97
F2
E6
FB
A7
FF
B8
11
F8
3C
26
BF
EC
AF
2E
4C
90
CD
A0
07
D4
BC
2F
A1
43
F1
23
2C
EC
9C
EC
E9
E6
C0
98
C5
02
0B
2C
9C
E1
AA
D7
00
88
A3
92
E4
DE
F3
18
28
3E
97
2B
B3
8C
9C
0E
88
41
37
83
25
0B
B1
94
49
10
28
EA
A1
FC
A9
ED
43
B1
24
08
5C
91
04
2B
23
EB
3E
9F
A4
1E
88
C9
22
FD
2E
13
D7
E3
BC
DB
48
AF
1E
22
0C
FE
E2
16
4B
3A
31
87
14
F7
CC
F1
A4
EA
85
C1
C0
FF
26
88
10
40
33
F8
18
1A
C1
B1
3D
BF
DD
CD
D1
AE
E5
B4
DC
16
FE
DC
CB
DE
19
AF
ED
AB
06
AD
02
C2
CB
1A
31
35
3D
E0
A3
E0
DD
07
D6
40
A4
D5
F2
3B
0B
55
E5
F5
0D
D5
C9
32
82
8F
8A
43
E0
E8
32
F5
26
ED
24
4D
26
0D
F7
E4
CE
1E
04
C3
F7
3E
1A
BD
86
BE
21
A5
C3
A5
A9
AB
20
95
03
29
07
0E
CF
0C
ED
B9
B5
F8
99
16
9C
2D
1B
89
A9
35
E6
02
0C
F8
18
2B
F3
9D
C0
13
36
C8
22
AB
3A
B0
A7
51
E5
55
CE
04
A8
E7
E7
BC
2D
95
58
9B
C6
12
AA
BD
D8
25
FC
C6
56
C4
E2
94
B1
3D
95
20
33
60
2F
A5
E8
14
1A
40
1F
0B
33
10
86
2B
1B
D2
03
27
A7
E5
A1
1B
15
4E
E6
DC
2D
A4
A1
97
35
35
B9
D3
84
C6
9B
18
CB
D4
8F
46
07
F0
DA
88
53
A1
15
38
15
3C
FB
01
3C
DC
F8
9D
DF
B7
B6
C2
33
90
1E
C8
B5
EB
C3
18
CA
AC
B1
02
20
F0
36
B9
13
3C
CE
37
2D
05
06
F1
C8
1C
39
DD
04
F3
29
FE
E0
B2
24
B4
E6
3B
1A
B1
F5
14
0B
3C
81
A1
EC
A4
20
A9
46
95
23
56
08
AC
87
48
C4
B5
06
AC
A4
38
C4
B9
90
24
B1
BA
E7
3E
AB
16
F8
BE
2D
E1
19
F8
A2
E2
52
E1
14
40
05
CE
87
29
CD
21
B5
26
A0
96
A7
1C
C6
36
A8
D9
10
C5
41
F8
0C
E5
3F
98
AC
FF
A1
E5
58
00
C6
18
BF
EB
FC
54
19
02
E4
F6
F1
1F
C5
EB
CE
BE
10
D7
FA
40
86
00
87
06
1F
F9
06
1A
01
CD
AC
16
3B
E1
38
F0
22
26
02
3C
E3
F7
A1
E3
35
E9
AE
06
31
B9
C9
05
93
03
97
E2
03
11
25
AD
B7
86
A8
8C
E8
1D
22
A3
88
41
F2
BC
C0
0A
13
2C
11
0B
0E
B6
3D
C4
86
FA
8E
25
07
54
D3
C8
26
30
BA
40
45
A2
9E
DD
9A
DC
24
5A
3C
F3
C1
EE
0E
B8
90
83
A9
E9
0A
3D
C3
47
D1
E4
F1
2B
90
31
9B
F2
4A
F6
5A
29
B4
54
E1
19
10
AC
C0
2B
C3
28
F0
98
DF
D8
3E
D8
C4
88
00
A6
10
F2
FB
4A
2A
88
C7
10
24
EB
21
CF
1B
2E
DD
F5
39
4B
03
9E
96
EE
BC
B2
3D
8C
3A
1E
BD
28
B2
DA
FC
CD
17
E5
B3
16
1E
F7
B0
1B
B7
9C
F0
EF
84
F2
FE
CB
C0
A0
C5
B5
C0
FA
EA
E5
A4
1C
E0
FB
9B
38
E4
24
96
0E
F3
C9
91
07
03
19
B7
13
2D
1A
8B
53
98
B9
2B
2C
92
E1
00
17
02
94
CB
C8
BE
9A
ED
EA
9B
2F
0E
E0
9A
0D
2B
0B
FF
D3
47
D5
DE
E5
34
F4
ED
D0
43
21
97
E9
50
D2
90
A7
00
3C
2B
D1
09
1E
81
D4
91
46
AC
E2
A2
9C
1D
E0
0F
C7
C4
AF
C6
5E
97
30
FC
D0
86
C2
10
FF
C9
27
B4
17
FD
B1
20
1E
84
B1
1B
25
95
2C
FA
FA
25
AC
40
81
96
DF
21
BF
F3
DC
60
A2
CD
09
0F
B0
C2
83
00
FB
92
00
B9
48
A3
3F
AB
4A
8A
A1
EA
C5
42
C1
50
C7
D2
C5
35
3E
8D
0A
4E
A4
D1
B8
AC
A5
B2
33
DF
F3
C2
C7
3F
EF
F4
30
A4
BF
09
16
FB
EA
43
2B
21
04
09
BD
9C
E2
90
31
F2
2A
37
15
B9
0E
33
25
CA
BE
07
29
02
08
01
93
BE
B4
91
23
E3
33
A2
D3
E8
19
20
10
DA
E3
09
22
48
EB
84
E4
01
B1
0D
EF
93
2E
27
21
AE
48
A5
F1
B9
DF
F6
FD
D7
06
BD
04
09
FF
F6
F5
8C
39
8B
25
B9
F0
0F
B3
D1
B7
11
21
F6
14
E6
27
E6
5F
B0
07
92
88
9A
F7
19
F6
3F
9A
2B
DF
07
29
0B
51
93
5F
EB
D2
98
37
2A
06
1C
B7
F2
11
EF
D8
1B
19
88
FE
98
04
2B
B7
1F
07
DE
27
DC
3F
0A
F7
E3
DE
DF
5C
22
23
C4
E3
CA
96
8A
3C
E7
BC
D9
D5
3A
54
AA
FC
24
EF
85
CD
14
EB
CE
D1
23
17
16
E9
32
1A
12
C1
19
94
DA
B6
D1
9E
C9
97
F2
44
2F
03
9D
AB
0B
EC
37
4D
E6
D7
F4
9E
43
D8
A5
38
8F
24
18
39
A9
C2
0B
F2
97
D2
F0
96
DA
AC
84
D3
EF
F6
95
B6
B5
2B
9B
41
2E
32
3D
B2
5B
E8
C3
CB
0F
3A
57
4B
C9
1A
EC
88
DE
97
58
F8
D2
5C
20
0B
AC
03
E3
3C
2A
15
96
A2
16
53
98
0F
3E
FE
47
29
B3
C1
CD
EB
10
BE
FF
AB
25
3F
F5
E2
25
C4
29
48
25
2C
38
2C
97
3E
05
50
B6
03
B9
89
EC
37
3C
FE
B1
2F
B8
F3
D7
D3
4B
2C
9C
AF
A8
D0
C3
CF
B6
3A
20
E4
C9
2E
98
9E
EF
4D
8D
27
99
B2
AF
9E
D1
9B
02
D5
CD
0C
35
ED
08
24
96
E1
B6
E5
98
5C
A6
F7
C9
D0
16
C6
CF
37
AC
E9
DB
A3
3C
19
B5
E4
4D
05
26
A2
FE
B5
38
30
A8
00
F9
0A
EC
3A
FA
A4
01
51
24
A8
9D
DD
82
3F
41
45
C5
04
0C
35
5D
D6
E4
97
2D
CA
36
C1
8A
57
30
CB
9B
A5
F4
D1
01
BC
17
C3
B6
2C
DE
A8
11
16
9D
E0
FF
D7
FB
23
04
33
FB
8D
0F
D2
C3
B9
A1
A2
07
17
A9
90
28
86
36
16
E9
1D
2E
5E
86
E9
31
C9
25
10
24
A4
F0
19
0C
20
DF
B7
27
B0
E1
37
16
E3
29
9D
C6
3A
49
93
90
FD
CE
5E
10
08
20
36
8E
A8
A2
58
E1
19
91
BF
39
8C
E5
A3
0F
29
2C
4E
17
15
4A
85
03
81
34
40
CB
FE
FD
DA
0D
34
A7
37
C6
3A
0D
3C
22
54
16
B7
A6
FC
32
C6
DC
DA
16
4B
8A
54
F1
86
B7
D4
0D
E5
3E
99
DF
EE
A9
33
E2
2D
33
3B
39
40
F5
06
1F
88
DD
B2
35
CE
C7
A3
B5
42
A5
31
2B
36
96
2C
0C
BF
85
38
C9
1E
AD
B8
E9
BB
2F
D3
92
23
B8
C8
AF
EA
1B
E9
CD
BE
0C
18
09
20
98
22
22
EB
C7
2E
06
F5
2D
C7
83
54
9C
4D
ED
CF
F2
9C
8E
F0
37
26
0D
BF
44
EC
E2
1C
C2
EA
C2
D3
39
43
37
B5
26
DE
32
C1
1E
A1
BC
31
CB
0A
9A
0D
A8
C9
32
28
A9
0E
A4
DD
28
17
D1
28
26
01
49
0E
95
45
F0
26
D5
EF
AC
FC
D3
37
30
E8
10
C4
FE
C7
D1
A4
18
C7
C4
FC
11
ED
E4
FB
DB
10
AB
2D
BC
46
AD
37
E6
08
CE
99
46
FF
0E
FB
00
B7
B2
DF
18
C4
ED
ED
D7
35
CB
91
29
ED
25
A2
02
3D
AE
3F
BA
44
D8
B7
23
8D
AB
F1
0F
D3
C2
33
31
5E
CA
A3
F9
F6
1E
A4
10
C7
D2
C3
11
F8
05
42
E6
CB
13
3C
81
BA
D9
2F
41
8A
E5
CA
3D
42
41
B4
13
3C
B1
FC
F8
B5
CD
FE
88
53
23
D5
15
D0
B6
1F
EF
C2
B1
25
B4
DD
94
0A
4C
FB
F5
31
58
E1
EF
EC
A0
26
DB
D4
25
B5
17
21
CE
AF
1C
CB
EF
D1
B8
B5
DB
EE
17
53
07
D7
A6
11
44
B2
0B
BA
B6
EB
86
02
E6
07
4B
3B
2C
35
E1
2F
B2
CF
8A
10
03
D8
A2
9E
51
CF
C7
FD
95
C7
30
29
15
3A
E4
BF
42
FF
FB
F8
E7
F0
43
08
F4
F6
A2
F9
0F
D3
A8
F3
8A
0D
DB
FE
ED
13
D9
3F
01
E0
9D
45
C8
C3
F0
C2
C0
8E
AE
5B
B2
B2
02
4C
01
B8
DE
41
8D
51
09
13
8D
F0
DE
F4
32
BE
94
A0
9A
08
AE
45
4A
1E
87
BF
B1
CD
2F
D6
29
32
F7
5C
2B
3E
CF
B7
26
3F
40
A5
94
0E
FE
17
06
01
F0
5F
20
F7
81
B0
B6
99
18
B6
5D
0C
EA
2E
F6
5E
45
E4
FF
2D
0B
CA
21
BC
A3
49
12
A6
BD
DD
54
A7
08
58
21
FE
83
BF
34
1B
25
DE
1B
36
A5
A8
DC
13
FD
1A
D4
E3
04
33
20
37
FB
02
38
03
AC
B0
E0
E7
2C
C7
34
59
8E
E8
E6
98
8D
17
38
FF
99
DC
1A
42
A1
E8
E6
43
C8
85
FD
3B
0B
EB
9C
C7
B9
C8
50
34
BF
DC
2C
0E
13
EF
5D
B6
D6
32
1F
E0
B5
F5
B9
46
3F
22
18
31
04
CB
88
EE
F4
E8
2B
DC
56
90
E6
26
B2
3E
06
FB
83
19
01
42
3F
22
53
1B
A3
F8
90
2C
B3
EC
E5
F1
96
F7
8E
59
01
5C
24
C4
C3
81
D7
D9
41
BE
C5
C8
EF
A1
50
D3
1F
B8
5D
D4
93
35
34
41
B9
4B
D0
5E
8E
3E
E1
37
AE
A8
18
06
55
9E
14
C4
A4
BA
2F
B5
12
B7
3F
DE
87
1D
CC
29
1D
1B
E5
F4
CD
0B
F9
02
A9
95
B2
29
A0
AA
92
89
F2
12
E1
12
F9
2E
38
29
10
E5
D6
35
BE
F9
E3
17
C8
F0
CA
11
AD
ED
3D
60
0D
B0
9B
53
B4
30
B8
F4
AC
DE
F8
E5
AC
5C
EB
A5
9E
F8
AE
CC
2E
35
F2
E0
AC
E6
00
50
10
CF
94
C4
95
E6
E5
3B
E6
A1
AD
C2
AA
D8
BE
19
EB
ED
C3
4F
DD
05
1B
BB
D0
18
A5
2B
D1
AA
F7
B6
D3
E8
87
CD
D0
F9
F4
A5
AA
D1
CB
CD
10
41
D3
3F
95
15
DD
60
37
EB
3E
A0
CD
CF
31
92
C2
36
20
27
36
A5
ED
27
8B
B4
BE
E6
AB
32
C5
33
10
DD
F3
2D
A2
59
93
F5
18
C1
3C
94
38
33
CD
0E
C5
AE
0F
F2
F7
F4
1A
FF
3B
C1
2F
B8
C8
C8
42
BB
56
18
B0
12
D1
3F
A3
C8
D2
FA
AF
DF
E1
11
A1
25
0B
BC
02
3A
CC
E6
3B
4E
A3
97
3F
5B
F5
21
A0
F2
46
E6
DB
42
2D
E3
33
DF
26
1D
DD
D7
24
A5
CC
D9
35
B2
D8
23
C5
24
EE
E2
FF
8E
E0
C6
3D
06
CE
93
0A
D6
F0
1B
AC
33
02
37
CE
E7
A0
D6
24
A5
5F
DD
A9
E3
22
29
CD
B1
E7
C9
2B
00
3F
16
B7
2E
21
26
1C
25
0A
23
EE
29
2C
5E
D0
E5
3A
B6
C4
E3
A5
37
F2
D5
C0
04
CD
E5
B1
D0
DA
FD
36
2F
AF
D3
E3
B5
41
BF
3D
B5
5F
40
EC
EC
5B
35
3B
DD
CE
BF
23
B5
2A
C2
B9
1B
EA
45
62
A0
04
BE
3F
F5
33
4E
D9
4A
5D
67
D1
D2
DF
31
B2
1F
BE
FD
D3
BC
C2
E9
DD
9E
10
24
E1
BE
D1
3C
4E
B3
69
F0
C6
12
8C
C3
04
A5
60
75
11
82
F0
3E
99
D5
18
2A
23
BF
EB
BE
F6
24
72
12
3B
4C
52
03
DF
FA
75
D6
43
48
E3
2D
52
B9
E2
05
F4
A7
F5
E2
84
F1
50
FF
49
09
BB
B9
47
9B
8D
D6
9E
35
2F
49
BA
1E
B3
F5
EF
C8
10
DD
FC
AD
62
25
C7
44
5B
5B
27
13
5C
3F
F7
13
1E
F7
02
13
BE
D5
11
E1
40
45
51
85
C0
B6
6C
4A
B2
45
24
E7
C5
6B
AB
35
CA
18
DF
C4
D1
43
59
4A
CA
E6
24
E4
09
46
E6
2F
44
AD
A8
89
3C
33
B1
32
C2
B9
B4
F1
FD
74
E9
EC
47
BE
9D
E2
32
CD
A0
09
CA
2A
08
CA
D6
D8
13
C5
16
B3
FE
DC
25
0E
4F
E6
A2
FB
EE
61
D4
22
C3
28
A3
AC
96
DE
59
FB
1B
AC
05
A1
47
CB
A0
CA
A4
0D
EC
D1
60
04
1E
AF
21
A6
DE
B3
16
05
02
77
F9
91
FD
D0
E8
CA
D4
25
1E
FA
9F
AE
48
3B
18
23
D4
A6
2D
46
BB
9A
4D
33
CF
28
0B
C7
32
3B
42
D5
A3
BF
4C
D9
C3
E2
1A
2C
CD
35
05
53
1F
24
07
AE
21
49
34
AB
D1
A0
CD
24
BA
C9
F4
E0
A8
FA
47
D4
0E
C7
36
19
31
39
31
CB
DF
F7
03
FC
31
F4
B7
B6
CB
45
B8
3A
CC
B1
B2
5C
E4
24
88
02
9F
26
AA
8B
4E
01
E9
ED
D2
CE
1F
5F
A2
5C
5A
0D
E5
F3
D8
C4
10
A9
8A
CB
47
1C
24
5C
E8
A0
F3
53
0A
5C
37
D1
58
2B
E6
44
D9
B5
03
C8
01
45
23
12
30
1B
96
9F
C9
CB
F6
2C
40
FD
83
BC
5A
CA
BB
2B
EC
AA
E8
A9
08
CE
AB
29
B8
B0
61
2B
EC
EA
B5
F2
48
BE
EF
38
F4
00
1F
CE
B4
A2
A8
1F
55
D2
1B
E9
D5
E0
A6
3E
2A
91
26
10
B5
5A
BE
17
0A
E8
B8
CB
49
A1
38
A0
CE
A9
E4
C8
DA
26
EE
45
9C
F6
DC
EC
58
10
07
3C
F5
45
2A
F3
9A
BD
1D
3E
AA
E3
28
DF
4A
20
D7
1E
37
E5
46
4A
A0
10
16
15
E9
37
D8
B8
A0
04
BC
46
09
45
0A
59
3C
EE
E5
BD
B1
2A
0E
B4
EF
F9
42
CB
C8
4D
B8
F0
22
24
E6
4A
04
FE
39
EB
BA
B9
E0
37
1D
11
30
CA
1B
0C
FE
12
E1
47
CD
27
1B
88
31
84
90
15
07
2D
EB
99
29
ED
EB
0D
D6
0F
B6
15
DA
EE
36
A5
26
BE
84
DA
0E
F5
31
44
3B
B6
C6
00
50
87
1F
DC
B0
40
CE
8E
A5
BE
3A
31
18
4A
C6
FE
F1
C2
C9
89
42
1E
F7
D2
B8
31
54
55
51
DA
FE
84
F9
D7
37
D4
8B
43
F6
A8
2C
0F
2E
0C
FC
DC
BE
AC
05
F8
54
D9
30
E8
EB
A8
5E
35
B2
1D
A8
0E
0F
D6
FB
D8
23
46
83
E6
1D
BA
03
63
C7
A9
9A
05
37
D4
C0
B3
AC
A5
E0
BB
B5
3B
41
0A
11
54
F6
39
01
F9
96
88
84
28
EB
B6
AE
18
C5
31
A3
F6
C4
E0
AA
B3
0D
E4
DB
19
4C
A6
AB
49
AD
48
FF
36
58
C6
14
EE
4B
9E
04
D2
16
B9
BB
3F
BC
9F
41
CC
2F
17
E9
D0
B7
C6
0C
EF
F3
A1
21
4A
AC
CB
46
F2
43
CD
03
E9
6B
13
AA
20
ED
1D
00
41
64
A7
52
D3
F9
F7
FC
A1
2A
44
06
3C
5C
E6
86
C0
F9
03
06
0E
F5
CD
D3
A9
2B
97
F7
23
FC
C4
E8
3B
EE
F2
E9
47
A1
27
D5
00
AD
EF
CB
0A
09
EC
AE
CF
B6
19
F1
AE
53
5B
D1
E6
6C
C4
44
24
CD
55
DB
C8
F8
4F
B5
AE
12
4D
D4
13
A1
8D
27
ED
13
62
EB
35
03
59
A5
5A
19
EE
17
EA
35
0C
18
0A
C3
FF
B0
B6
DB
FB
0E
32
8C
EF
21
D9
B0
EC
4F
90
C1
CF
EA
49
5F
1F
B2
3F
BB
D7
0B
EC
E8
BB
DD
47
DF
A6
FF
CE
A0
28
2A
52
8F
B4
FE
10
D1
EB
DB
39
CE
5C
0C
61
EC
41
F8
4B
2D
C5
18
F1
C2
84
22
0C
DE
A9
43
A8
46
31
FE
D4
8B
35
60
57
0B
D9
A1
8C
3B
BB
2D
E9
F8
9F
5A
0D
12
23
0A
C4
32
39
DE
12
EF
5C
0E
B2
57
BF
2C
5B
8D
20
3F
1F
B4
8A
3A
F2
A2
C6
07
DD
2B
03
B4
FC
A1
FA
D5
E5
E0
20
84
F5
11
A3
38
E5
0B
43
86
D6
B0
5E
CA
2A
18
2D
C8
FA
DE
E9
88
9E
CF
F9
3C
A2
22
B4
EF
0C
12
01
BA
49
13
32
2D
D0
22
19
1A
21
24
D2
3A
12
F6
2B
F4
C4
2E
ED
B8
B6
17
51
22
F9
37
3E
C8
93
CA
81
3F
A1
E6
21
A3
BF
CA
0A
B1
DE
BC
A0
55
38
1C
54
FA
8E
52
13
1C
A0
D8
55
A5
1A
AB
47
A6
9B
5F
D1
C1
3E
B3
2A
19
D2
A7
04
C5
B9
8F
FA
37
D9
20
42
A0
A2
D8
33
D5
1F
A8
61
1D
2B
E9
E3
AF
CB
F1
14
89
DF
9D
54
1F
DE
2F
14
CC
B7
94
02
A1
E7
11
EA
A0
8A
54
4E
BE
38
DD
4A
43
54
14
35
25
D7
1E
E7
B8
3E
FE
60
D7
E5
B2
D1
2F
3E
3D
3E
06
27
13
3C
CC
F1
C8
AF
D2
C2
9F
53
BF
0A
62
9F
BA
F6
E1
14
E4
2D
22
A9
BB
8B
A9
B7
F1
42
DE
26
B4
FB
CA
E3
C3
AC
B6
E9
8D
D7
27
C6
47
F4
E5
B4
0D
F8
26
60
F7
36
3D
E6
45
9A
10
35
37
BF
A9
27
AD
A1
49
A5
00
14
DE
4A
2B
F8
31
EF
40
33
3B
AA
A5
B6
00
E7
DF
57
FF
C2
1C
2D
CE
D8
A3
19
07
FD
48
1C
F9
FC
51
2E
12
38
6B
56
53
B8
CF
FC
E8
61
4D
9C
D5
D1
FE
B2
F9
F8
3E
0D
E6
42
45
C1
FD
C9
E3
D0
05
30
5D
FD
00
B2
49
E6
0D
B5
DA
B0
51
09
E5
24
C1
26
EC
07
B2
C2
C6
0C
E2
CA
A4
00
DC
B9
DF
A3
A1
0A
BA
8C
40
D6
DF
4A
B2
DD
A4
E3
5B
DA
CF
0D
77
2A
FB
AF
E3
FF
02
11
F7
CC
44
5D
FD
D1
4A
A3
53
2C
E8
90
DA
46
A6
37
C2
A0
E3
DA
2D
FB
FD
94
F6
9F
CC
A5
A5
1A
ED
C3
18
EB
18
50
BA
C8
DB
E6
A0
04
F2
A1
37
46
09
62
D0
B6
20
F8
B7
A4
B4
D8
37
40
1F
B3
43
62
5B
C2
CA
02
FD
A9
89
2D
E4
FC
53
34
49
C3
B7
11
08
D9
56
32
DC
B6
AA
01
A6
D9
15
E7
98
E8
1F
A9
1A
27
91
D7
11
26
D7
4E
48
D6
47
3B
B5
AE
4B
DA
65
ED
E2
DD
20
41
A2
CC
A5
C6
B4
A0
B6
DB
C0
AF
34
A8
BB
A3
EC
45
ED
A6
05
05
1C
E9
0F
CC
B6
A3
AA
C5
DD
CD
E9
E0
DD
D8
16
CE
96
62
11
B7
C2
C8
BD
AB
AD
2E
BB
A1
BD
F0
54
54
B8
59
21
EE
B4
F5
B0
C7
FC
4A
29
E4
B0
C0
16
37
09
B0
C0
D2
B0
A4
2E
CB
20
09
E1
D7
FA
28
FD
E8
61
30
F1
04
25
E8
DD
4D
1C
10
29
36
0F
08
34
BB
F5
B4
40
39
16
4F
06
1D
C9
1A
A7
EA
3E
2E
30
4D
D7
B7
C1
1E
43
EB
9C
D1
BC
18
BC
DE
1D
1F
AB
19
AB
C8
BD
3F
EC
BA
4E
01
8F
06
31
0D
D1
52
5F
DE
DD
02
4C
DB
4D
B4
2E
52
AC
1C
DA
1A
C0
27
AE
E4
42
04
AF
03
AA
B9
D7
3C
1B
F2
BD
53
2F
22
52
1C
35
A4
D4
FB
1E
D6
C9
CD
C9
41
30
03
0D
C9
42
A9
03
E1
3D
B9
FC
DB
5A
EB
BA
0F
F5
FA
DB
63
FF
57
5D
ED
61
F3
42
C0
27
1C
A1
FB
21
F6
0F
43
12
25
B7
F5
A1
C6
84
1A
D5
B4
3C
ED
EE
9F
33
2B
C9
12
01
3C
F5
95
22
DE
E9
10
22
C1
44
C5
44
43
1E
87
8E
B5
83
43
3D
06
F6
FC
0C
A3
E7
24
A7
35
B5
00
07
0D
35
F1
25
62
8B
5A
47
57
27
0B
9F
25
C6
1C
AA
CE
EE
A5
F0
DF
57
D6
22
B7
A1
01
BD
37
18
58
ED
55
B2
BA
D3
C4
D6
B2
C6
4D
F3
E4
54
4D
A0
FE
DC
43
33
EA
35
21
BA
15
B7
46
D2
11
31
0E
0C
0B
38
5C
A4
B7
B0
BA
06
2F
F5
AB
AC
AF
3B
3C
4E
C5
23
12
C1
26
2C
4B
39
25
0B
EE
4B
23
F6
2D
08
2D
AD
C3
02
DD
A2
B1
9F
0A
E6
23
E9
53
E0
D5
59
F2
A5
E1
D0
BC
9D
59
DC
DF
C3
1E
61
00
46
0D
1D
F5
BB
58
24
DE
44
3E
03
14
BB
1A
DB
45
5D
A9
C9
E6
A8
57
BF
BC
FF
F6
F2
AB
DC
A4
E6
F3
D0
B6
EC
9F
A9
BE
52
43
39
D9
A3
DF
E4
EA
B5
A9
5D
B9
E2
E8
33
52
C8
AA
C8
EB
06
9E
D1
D5
1A
E5
E4
DE
AE
CC
3E
83
A1
E7
61
FD
67
DF
DA
F1
B3
1E
52
4C
ED
87
B4
F3
A1
0D
FB
5E
49
D1
3F
EF
F0
0E
B4
B4
EE
24
C1
CA
0D
01
B2
31
BD
AE
55
BC
60
2F
48
D8
E7
1B
14
05
35
09
36
32
DB
86
C7
A5
0E
1C
2A
5E
2E
F0
D8
A1
F6
17
DE
17
3D
03
D2
0E
0A
F0
04
03
00
0C
01
92
F1
48
23
DB
C9
9F
9A
BF
01
BA
BF
24
EA
D4
C5
C3
06
09
EF
FE
C2
28
D7
3D
08
E3
F2
5D
EC
BD
CD
C3
F3
14
2A
52
47
39
8E
29
CB
3A
3A
31
40
47
39
C0
EF
33
33
5D
35
54
21
CB
56
3F
F5
AC
53
10
16
B1
F2
DA
BB
17
41
CE
D3
5A
1C
9F
38
9E
B6
5B
A4
AE
AA
9E
27
C7
2C
E3
20
D2
A2
41
31
B3
4D
FD
20
49
A8
DD
08
A9
F9
2A
FF
2F
DA
D3
EF
4A
24
A2
C6
1E
F9
15
C2
AE
D1
1A
FD
C1
E4
B9
A6
C5
2F
A2
CF
ED
98
03
21
31
B5
44
B0
31
0C
4B
FB
03
BC
40
C9
4C
F4
EF
DE
4C
9C
3D
44
37
2C
B3
3F
D6
01
83
43
F3
FE
D5
9B
B6
3A
86
B3
5C
DA
FE
B0
5B
D9
F4
19
E9
EC
3A
20
0B
DD
C5
23
0F
0A
60
CC
10
E0
2A
4E
2E
CE
F1
08
41
F6
16
8E
2C
34
21
A0
61
FC
F9
E9
07
F3
3A
45
34
67
26
B6
56
48
42
48
E6
0B
1B
A8
C4
F1
DC
FB
E5
0D
AA
C6
53
F2
A6
24
F3
AB
C6
26
39
C0
DC
07
50
12
55
D7
1F
4D
3A
E7
A7
5E
13
46
EC
02
08
53
BF
1D
36
C4
A5
29
24
91
F1
C4
53
ED
DB
B7
0A
B0
56
0B
3D
35
A4
47
D7
B3
40
59
08
BD
02
21
37
28
EC
B6
EB
41
21
20
EA
2A
D6
27
42
EF
9F
38
AF
12
DF
47
A5
B2
07
DB
57
DF
D0
AF
D9
CD
71
F5
53
D3
DC
2F
E2
D1
59
1A
4D
19
3E
0C
CF
EC
A4
9F
FA
5B
0F
C7
4F
C2
E2
BB
D0
2B
A3
5F
AB
F2
4F
A2
5B
2E
5D
5F
E9
72
E7
30
C3
CA
44
F1
9D
F5
20
D4
07
34
17
47
DA
F0
BF
62
EA
BB
44
BA
97
B2
CF
27
45
B2
16
35
2D
5B
C5
4E
CB
8D
5C
2B
DC
DE
CA
E2
33
5A
10
96
F3
F8
33
CC
F0
57
FF
13
23
07
31
E1
DE
37
11
CF
AC
FF
5F
FA
09
CF
36
55
4F
33
DD
3B
DF
AD
05
EB
02
E0
FE
D0
5D
B6
E4
ED
E7
F8
D7
90
16
2D
5B
1E
B3
24
C5
D7
29
D7
2B
E7
E8
41
0A
E8
C6
5D
17
B9
32
A7
07
B6
44
38
53
E5
34
06
CD
CE
3D
C6
FC
39
C8
3C
16
B5
57
FF
07
F3
FB
B0
4F
2E
18
24
D0
FD
4E
F0
1A
00
F2
CC
C8
2D
D2
98
33
BB
C4
D7
E6
C5
D6
E0
51
E4
E2
AB
9E
02
3C
D5
BC
38
EA
2B
5D
EF
FB
3D
B5
AC
36
56
C8
3A
87
E1
06
08
3C
0D
44
E6
CA
46
17
9F
03
40
F7
F0
F2
D4
C3
EC
E8
EA
A1
B4
25
1C
A8
E5
4E
25
40
CB
FB
AB
77
A5
BE
D5
CE
48
BE
BD
50
2E
E9
09
B6
A6
C3
9E
DB
14
91
FE
B7
E6
0F
B0
D2
D8
2D
C8
C7
0B
DC
BC
AA
1B
F9
C1
59
51
1C
44
08
64
4D
05
AC
D0
CA
02
BA
E1
38
CE
DA
F5
38
2D
3C
60
21
4B
CF
FC
FD
4A
29
B0
D0
99
E6
E5
0B
21
EA
F8
61
99
B2
2B
37
E9
E5
E3
AE
24
BD
F2
4D
F9
19
CB
3D
EB
54
11
B6
59
A1
BF
49
8C
0C
A4
09
6D
17
19
60
30
D8
A3
23
AA
21
3A
0B
25
44
30
04
E1
0A
A4
3F
CC
D1
34
31
CC
E3
37
DB
D8
0F
09
AC
9F
A0
E8
EF
F3
03
F3
01
A4
CD
E9
AD
56
30
BB
1F
BA
A5
3E
DF
07
3B
55
CB
15
53
D8
17
25
43
FE
1D
07
AA
0A
B2
AF
F0
D9
17
45
EC
DF
B7
B1
4A
B5
1B
16
A8
17
32
5B
11
A2
03
DE
1F
96
A3
BF
DD
C7
F6
09
2A
F6
27
FE
13
22
D8
BA
A5
62
46
B7
DB
F9
59
42
01
C9
4F
5D
D6
F9
84
01
19
DD
F5
E6
1F
11
45
CD
D0
F7
C7
